{
  "version": "1.0",
  "truncation": null,
  "padding": null,
  "added_tokens": [
    {
      "id": 0,
      "content": "[PAD]",
      "single_word": false,
      "lstrip": false,
      "rstrip": false,
      "normalized": false,
      "special": true
    },
    {
      "id": 1,
      "content": "[UNK]",
      "single_word": false,
      "lstrip": false,
      "rstrip": false,
      "normalized": false,
      "special": true
    },
    {
      "id": 2,
      "content": "[BOS]",
      "single_word": false,
      "lstrip": false,
      "rstrip": false,
      "normalized": false,
      "special": true
    },
    {
      "id": 3,
      "content": "[EOS]",
      "single_word": false,
      "lstrip": false,
      "rstrip": false,
      "normalized": false,
      "special": true
    }
  ],
  "normalizer": null,
  "pre_tokenizer": {
    "type": "ByteLevel",
    "add_prefix_space": true,
    "trim_offsets": true,
    "use_regex": true
  },
  "post_processor": {
    "type": "ByteLevel",
    "add_prefix_space": true,
    "trim_offsets": false,
    "use_regex": true
  },
  "decoder": null,
  "model": {
    "type": "BPE",
    "dropout": null,
    "unk_token": "[UNK]",
    "continuing_subword_prefix": null,
    "end_of_word_suffix": null,
    "fuse_unk": false,
    "byte_fallback": false,
    "ignore_merges": false,
    "vocab": {
      "[PAD]": 0,
      "[UNK]": 1,
      "[BOS]": 2,
      "[EOS]": 3,
      "!": 4,
      "\"": 5,
      "#": 6,
      "$": 7,
      "%": 8,
      "&": 9,
      "'": 10,
      "(": 11,
      ")": 12,
      "*": 13,
      "+": 14,
      ",": 15,
      "-": 16,
      ".": 17,
      "/": 18,
      "0": 19,
      "1": 20,
      "2": 21,
      "3": 22,
      "4": 23,
      "5": 24,
      "6": 25,
      "7": 26,
      "8": 27,
      "9": 28,
      ":": 29,
      ";": 30,
      "<": 31,
      "=": 32,
      ">": 33,
      "?": 34,
      "@": 35,
      "A": 36,
      "B": 37,
      "C": 38,
      "D": 39,
      "E": 40,
      "F": 41,
      "G": 42,
      "H": 43,
      "I": 44,
      "J": 45,
      "K": 46,
      "L": 47,
      "M": 48,
      "N": 49,
      "O": 50,
      "P": 51,
      "Q": 52,
      "R": 53,
      "S": 54,
      "T": 55,
      "U": 56,
      "V": 57,
      "W": 58,
      "X": 59,
      "Y": 60,
      "Z": 61,
      "[": 62,
      "\\": 63,
      "]": 64,
      "^": 65,
      "_": 66,
      "`": 67,
      "a": 68,
      "b": 69,
      "c": 70,
      "d": 71,
      "e": 72,
      "f": 73,
      "g": 74,
      "h": 75,
      "i": 76,
      "j": 77,
      "k": 78,
      "l": 79,
      "m": 80,
      "n": 81,
      "o": 82,
      "p": 83,
      "q": 84,
      "r": 85,
      "s": 86,
      "t": 87,
      "u": 88,
      "v": 89,
      "w": 90,
      "x": 91,
      "y": 92,
      "z": 93,
      "{": 94,
      "|": 95,
      "}": 96,
      "~": 97,
      "¡": 98,
      "¢": 99,
      "£": 100,
      "¤": 101,
      "¥": 102,
      "¦": 103,
      "§": 104,
      "¨": 105,
      "©": 106,
      "ª": 107,
      "«": 108,
      "¬": 109,
      "®": 110,
      "¯": 111,
      "°": 112,
      "±": 113,
      "²": 114,
      "³": 115,
      "´": 116,
      "µ": 117,
      "¶": 118,
      "·": 119,
      "¸": 120,
      "¹": 121,
      "º": 122,
      "»": 123,
      "¼": 124,
      "½": 125,
      "¾": 126,
      "¿": 127,
      "Â": 128,
      "Ã": 129,
      "Ä": 130,
      "Å": 131,
      "Æ": 132,
      "Ç": 133,
      "È": 134,
      "É": 135,
      "Ê": 136,
      "Ë": 137,
      "Ì": 138,
      "Í": 139,
      "Î": 140,
      "Ï": 141,
      "Ð": 142,
      "Ñ": 143,
      "Ò": 144,
      "Ó": 145,
      "Ô": 146,
      "Õ": 147,
      "Ö": 148,
      "×": 149,
      "Ø": 150,
      "Ù": 151,
      "Ú": 152,
      "Û": 153,
      "Ü": 154,
      "Ý": 155,
      "Þ": 156,
      "ß": 157,
      "à": 158,
      "á": 159,
      "â": 160,
      "ã": 161,
      "ä": 162,
      "å": 163,
      "æ": 164,
      "ç": 165,
      "è": 166,
      "é": 167,
      "ê": 168,
      "ë": 169,
      "ì": 170,
      "í": 171,
      "î": 172,
      "ï": 173,
      "ð": 174,
      "ô": 175,
      "ĉ": 176,
      "Ċ": 177,
      "Ġ": 178,
      "Ģ": 179,
      "ģ": 180,
      "Ĥ": 181,
      "ĥ": 182,
      "Ħ": 183,
      "ħ": 184,
      "Ĩ": 185,
      "ĩ": 186,
      "Ī": 187,
      "ī": 188,
      "Ĭ": 189,
      "ĭ": 190,
      "Į": 191,
      "į": 192,
      "İ": 193,
      "ı": 194,
      "Ĳ": 195,
      "ĳ": 196,
      "Ĵ": 197,
      "ĵ": 198,
      "Ķ": 199,
      "ķ": 200,
      "ĸ": 201,
      "Ĺ": 202,
      "ĺ": 203,
      "Ļ": 204,
      "ļ": 205,
      "Ľ": 206,
      "ľ": 207,
      "Ŀ": 208,
      "ŀ": 209,
      "Ł": 210,
      "ł": 211,
      "Ń": 212,
      "Ġt": 213,
      "Ġa": 214,
      "he": 215,
      "in": 216,
      "re": 217,
      "Ġthe": 218,
      "Ġs": 219,
      "on": 220,
      "er": 221,
      "Ġw": 222,
      "nd": 223,
      "Ġo": 224,
      "at": 225,
      "Ġc": 226,
      "it": 227,
      "Ġb": 228,
      "Ġf": 229,
      "ed": 230,
      "or": 231,
      "is": 232,
      "ou": 233,
      "en": 234,
      "es": 235,
      "ing": 236,
      "Ġp": 237,
      "Ġto": 238,
      "Ġand": 239,
      "an": 240,
      "Ġm": 241,
      "ar": 242,
      "al": 243,
      "Ġin": 244,
      "Ġof": 245,
      "Ġd": 246,
      "Ġh": 247,
      "as": 248,
      "le": 249,
      "om": 250,
      "ic": 251,
      "Ġth": 252,
      "ĠT": 253,
      "ion": 254,
      "il": 255,
      "Ġl": 256,
      "Ġn": 257,
      "ent": 258,
      "Ġe": 259,
      "ĠS": 260,
      "Ġg": 261,
      "ĠI": 262,
      "ve": 263,
      "Ġre": 264,
      "ro": 265,
      "st": 266,
      "âĢ": 267,
      "id": 268,
      "et": 269,
      "ay": 270,
      "Ġy": 271,
      "ly": 272,
      "ac": 273,
      "ĠA": 274,
      "ut": 275,
      "ot": 276,
      "Ġbe": 277,
      "ad": 278,
      "Ġon": 279,
      "im": 280,
      "Ġfor": 281,
      "ow": 282,
      "Ġhe": 283,
      "ĠC": 284,
      "Ġis": 285,
      "am": 286,
      "Ġyou": 287,
      "ĠThe": 288,
      "ig": 289,
      "ur": 290,
      "el": 291,
      "ver": 292,
      "ol": 293,
      "Ġu": 294,
      "ct": 295,
      "Ġthat": 296,
      "ĠM": 297,
      "ith": 298,
      "ir": 299,
      "Ġst": 300,
      "Ġit": 301,
      "Ġwas": 302,
      "se": 303,
      "ĠB": 304,
      "Ġwith": 305,
      "ĠH": 306,
      "ation": 307,
      "ce": 308,
      "Ġ,": 309,
      "ch": 310,
      "ĠP": 311,
      "Ġas": 312,
      "ter": 313,
      "ĠW": 314,
      "Ġal": 315,
      "Ġwh": 316,
      "Ġan": 317,
      "ul": 318,
      "Ġha": 319,
      "ke": 320,
      "âĢĻ": 321,
      "Ġwe": 322,
      "ill": 323,
      "Ġ1": 324,
      "ĠL": 325,
      "oo": 326,
      "pp": 327,
      "ri": 328,
      "ĠD": 329,
      "her": 330,
      "ld": 331,
      "Ġ.": 332,
      "ĠF": 333,
      "ra": 334,
      "if": 335,
      "ers": 336,
      "Ġare": 337,
      "Ġpro": 338,
      "Ġat": 339,
      "Ġcon": 340,
      "ge": 341,
      "ĠR": 342,
      "Ġ\"": 343,
      "ore": 344,
      "Ġse": 345,
      "ate": 346,
      "Ġcom": 347,
      "ĠO": 348,
      "ess": 349,
      "un": 350,
      "us": 351,
      "Ġ2": 352,
      "est": 353,
      "Ġor": 354,
      "rom": 355,
      "ant": 356,
      "igh": 357,
      "th": 358,
      "Ġne": 359,
      "Ġr": 360,
      "ment": 361,
      "Ġde": 362,
      "Ġ(": 363,
      "ist": 364,
      "Ġex": 365,
      "ab": 366,
      "ĠN": 367,
      "ĠG": 368,
      "ĠE": 369,
      "op": 370,
      "um": 371,
      "ĠâĢ": 372,
      "Ġsh": 373,
      "ain": 374,
      "Ġnot": 375,
      "Ġv": 376,
      "ure": 377,
      "qu": 378,
      "art": 379,
      "ive": 380,
      "Ġby": 381,
      "Ġfrom": 382,
      "pe": 383,
      "em": 384,
      "Ġhave": 385,
      "Ġpl": 386,
      "Ġsa": 387,
      "ort": 388,
      "ity": 389,
      "nt": 390,
      "os": 391,
      "ĠJ": 392,
      "ust": 393,
      "and": 394,
      "ould": 395,
      "oc": 396,
      "all": 397,
      "ard": 398,
      "Ġch": 399,
      "ight": 400,
      "ies": 401,
      "ome": 402,
      "Ġle": 403,
      "Ġthis": 404,
      "Ġsu": 405,
      "Ġyour": 406,
      "Ġcan": 407,
      "gh": 408,
      "rou": 409,
      "Ġ-": 410,
      "red": 411,
      "ack": 412,
      "Ġhis": 413,
      "res": 414,
      "ud": 415,
      "out": 416,
      "Ġk": 417,
      "ide": 418,
      "iv": 419,
      "00": 420,
      "Ġher": 421,
      "our": 422,
      "ally": 423,
      "ĠHe": 424,
      "ie": 425,
      "Ġwor": 426,
      "Ġab": 427,
      "od": 428,
      "'s": 429,
      "Ġdo": 430,
      "ell": 431,
      "ast": 432,
      "Ġj": 433,
      "Ġup": 434,
      "Ġbut": 435,
      "Ġall": 436,
      "Ġwill": 437,
      "Ġthey": 438,
      "Ġso": 439,
      "ost": 440,
      "very": 441,
      "ak": 442,
      "te": 443,
      "ag": 444,
      "ook": 445,
      "ear": 446,
      "ine": 447,
      "Ġwhe": 448,
      "ime": 449,
      "ry": 450,
      "pt": 451,
      "fe": 452,
      "Ġout": 453,
      "ĠIn": 454,
      "ake": 455,
      "ther": 456,
      "per": 457,
      "Ġtheir": 458,
      "ice": 459,
      "ong": 460,
      "Ġme": 461,
      "Ġhad": 462,
      "ĠTh": 463,
      "ial": 464,
      "ich": 465,
      "ĠU": 466,
      "ame": 467,
      "ind": 468,
      "ne": 469,
      "one": 470,
      "pl": 471,
      "Ġhas": 472,
      "age": 473,
      "ĠIt": 474,
      "Ġad": 475,
      "are": 476,
      "act": 477,
      "Ġsaid": 478,
      "Ġli": 479,
      "Ġus": 480,
      "Ġcl": 481,
      "ood": 482,
      "ions": 483,
      "Ġwere": 484,
      "ated": 485,
      "Ġshe": 486,
      "ous": 487,
      "ip": 488,
      "ĠY": 489,
      "Ġgo": 490,
      "Ġtime": 491,
      "ily": 492,
      "ber": 493,
      "Ġen": 494,
      "Ġmore": 495,
      "ĠShe": 496,
      "Ġcomp": 497,
      "og": 498,
      "Ġone": 499,
      "ĠK": 500,
      "ĠThey": 501,
      "ite": 502,
      "ĠâĢľ": 503,
      "Ġwho": 504,
      "cc": 505,
      "âĢĿ": 506,
      "Ġman": 507,
      "able": 508,
      "iz": 509,
      "Ġmy": 510,
      "ans": 511,
      "ace": 512,
      "ays": 513,
      "ru": 514,
      "ia": 515,
      "so": 516,
      "Ġthere": 517,
      "Ġabout": 518,
      "Ġim": 519,
      "orm": 520,
      "ree": 521,
      "ick": 522,
      "Ġcont": 523,
      "Ġwhich": 524,
      "Ġfe": 525,
      "au": 526,
      "ĠSt": 527,
      "ach": 528,
      "ark": 529,
      "Ġint": 530,
      "ap": 531,
      "Ġthem": 532,
      "cl": 533,
      "Ġte": 534,
      "ance": 535,
      "ary": 536,
      "Ġother": 537,
      "Ġ@": 538,
      "itt": 539,
      "Ġ20": 540,
      "ire": 541,
      "du": 542,
      "ign": 543,
      "Ġsome": 544,
      "Ġplay": 545,
      "ass": 546,
      "Ġwork": 547,
      "ue": 548,
      "Ġres": 549,
      "ff": 550,
      "ile": 551,
      "Ġlike": 552,
      "Ġapp": 553,
      "ĠV": 554,
      "av": 555,
      "Ġsp": 556,
      "reat": 557,
      "own": 558,
      "Ġ'": 559,
      "ll": 560,
      "ase": 561,
      "ction": 562,
      "Ġag": 563,
      "Ġsc": 564,
      "Ġour": 565,
      "Ġper": 566,
      "ub": 567,
      "ove": 568,
      "Ġ3": 569,
      "ings": 570,
      "ep": 571,
      "Ġoff": 572,
      "Ġalso": 573,
      "ĠCh": 574,
      "ough": 575,
      "ical": 576,
      "Ġwould": 577,
      "ations": 578,
      "ail": 579,
      "Ġnew": 580,
      "Ġqu": 581,
      "Ġro": 582,
      "Ġev": 583,
      "Ġyear": 584,
      "ib": 585,
      "Ġ19": 586,
      "ound": 587,
      "ord": 588,
      "ult": 589,
      "Ġday": 590,
      "Ġdis": 591,
      "ond": 592,
      "ov": 593,
      "Ġun": 594,
      "Ġwant": 595,
      "end": 596,
      "Ġtr": 597,
      "oy": 598,
      "Ġwhen": 599,
      "Ġany": 600,
      "Ġget": 601,
      "Ġar": 602,
      "ck": 603,
      "Ġover": 604,
      "ount": 605,
      "ress": 606,
      "Ġpart": 607,
      "Ġbeen": 608,
      "Ġ=": 609,
      "ence": 610,
      "hed": 611,
      "ish": 612,
      "Ġwhat": 613,
      "low": 614,
      "Ġbec": 615,
      "Ġkn": 616,
      "Ġpe": 617,
      "fter": 618,
      "ĠWe": 619,
      "form": 620,
      "ose": 621,
      "Ġvery": 622,
      "erv": 623,
      "ade": 624,
      "Ġits": 625,
      "irst": 626,
      "ition": 627,
      "ater": 628,
      "vel": 629,
      "Ġthan": 630,
      "Ġpre": 631,
      "Ġspe": 632,
      "Ġlook": 633,
      "wn": 634,
      "Ġrec": 635,
      "ink": 636,
      "'t": 637,
      "Ġtw": 638,
      "ors": 639,
      "ens": 640,
      "ild": 641,
      "Ġinto": 642,
      "mer": 643,
      "Ġhim": 644,
      "Ġsm": 645,
      "Ġif": 646,
      "round": 647,
      "ob": 648,
      "ĠThis": 649,
      "Ġ201": 650,
      "ents": 651,
      "port": 652,
      "Ġ@-": 653,
      "Ġ@-@": 654,
      "Ġhel": 655,
      "int": 656,
      "Ġjust": 657,
      "ory": 658,
      "Ġback": 659,
      "ren": 660,
      "ang": 661,
      "ful": 662,
      "Ġpr": 663,
      "Ġcould": 664,
      "Ġfirst": 665,
      "nder": 666,
      "Ġhelp": 667,
      "..": 668,
      "Ġhow": 669,
      "old": 670,
      "rough": 671,
      "Ġno": 672,
      "Ġam": 673,
      "ople": 674,
      "ian": 675,
      "Ġneed": 676,
      "ĠâĢĵ": 677,
      "ked": 678,
      "ning": 679,
      "Ġmake": 680,
      "Ġtoo": 681,
      "Ġdid": 682,
      "Ġhapp": 683,
      "Ġacc": 684,
      "ĠYou": 685,
      "Ġ4": 686,
      "Ġdes": 687,
      "Ġbl": 688,
      "vers": 689,
      "ious": 690,
      "ĠOn": 691,
      "hing": 692,
      "clud": 693,
      "ons": 694,
      "ittle": 695,
      "ict": 696,
      "ĠLily": 697,
      "anc": 698,
      "Ġpeople": 699,
      "Ġsee": 700,
      "ft": 701,
      "Ġbet": 702,
      "Ġtwo": 703,
      "Ġ5": 704,
      "ause": 705,
      "ĠWh": 706,
      "riend": 707,
      "ĠRe": 708,
      "Ġknow": 709,
      "ks": 710,
      "we": 711,
      "Ġcomm": 712,
      "amp": 713,
      "Ġco": 714,
      "Ġonly": 715,
      "ates": 716,
      "Ġlittle": 717,
      "ise": 718,
      "Ġmom": 719,
      "Ġevery": 720,
      "ual": 721,
      ".\"": 722,
      "Ġbu": 723,
      "ĠAs": 724,
      "Ġcol": 725,
      "my": 726,
      "hen": 727,
      "Ġafter": 728,
      "Ġmost": 729,
      "Ġinclud": 730,
      "rit": 731,
      "ĠAn": 732,
      "ĠBut": 733,
      "ph": 734,
      "Ġmay": 735,
      "ating": 736,
      "Ġact": 737,
      "ited": 738,
      "Ġunder": 739,
      "Ġbig": 740,
      "les": 741,
      "tern": 742,
      "Ġthen": 743,
      "Ġthrough": 744,
      "iss": 745,
      "rent": 746,
      "Ġstart": 747,
      "Ġfriend": 748,
      "get": 749,
      "Ġ200": 750,
      "urn": 751,
      "ĠNe": 752,
      "ments": 753,
      "Ġgood": 754,
      "Ġpo": 755,
      "Ġprov": 756,
      "Ġadd": 757,
      "fore": 758,
      "way": 759,
      "Ġagain": 760,
      "Ġind": 761,
      "Ġcons": 762,
      "Ġem": 763,
      "lic": 764,
      "omet": 765,
      "iew": 766,
      "Ġprodu": 767,
      "uch": 768,
      "oth": 769,
      "Ġmade": 770,
      "Ġfl": 771,
      "Ġuse": 772,
      "als": 773,
      "Ġ)": 774,
      "Ġwell": 775,
      "elf": 776,
      "Ġmany": 777,
      "ect": 778,
      "Ġrem": 779,
      "Ġdec": 780,
      "xt": 781,
      "ĠAnd": 782,
      "Ġke": 783,
      "ward": 784,
      "Ġcar": 785,
      "day": 786,
      "lect": 787,
      "fect": 788,
      "Ġdown": 789,
      "ĠSe": 790,
      "row": 791,
      "gr": 792,
      "Ġdif": 793,
      "Ġrel": 794,
      "ife": 795,
      "ied": 796,
      "Ġthese": 797,
      "ys": 798,
      "uring": 799,
      "ĠUn": 800,
      "ĠOne": 801,
      "Ġwhere": 802,
      "enc": 803,
      "aw": 804,
      "Ġyears": 805,
      "ased": 806,
      "Ġph": 807,
      "Ġsupp": 808,
      "Ġserv": 809,
      "Ġeven": 810,
      "ities": 811,
      "Ġfin": 812,
      "Ġway": 813,
      "Ġaround": 814,
      "ty": 815,
      "Ġinc": 816,
      "aking": 817,
      "ont": 818,
      "Ġbecause": 819,
      "Ġspec": 820,
      "Ġtra": 821,
      "Ġreg": 822,
      "ert": 823,
      "Ġshow": 824,
      "Ġinv": 825,
      "ific": 826,
      "Ġsec": 827,
      "ath": 828,
      "ĠIf": 829,
      "ug": 830,
      "ting": 831,
      "ject": 832,
      "hes": 833,
      "ool": 834,
      "Ġsy": 835,
      "Ġatt": 836,
      "Ġmuch": 837,
      "ange": 838,
      "erm": 839,
      "Ġ6": 840,
      "Ġimp": 841,
      "Ġfind": 842,
      "Ġnow": 843,
      "oss": 844,
      "Ġhome": 845,
      "ational": 846,
      "Ġshould": 847,
      "other": 848,
      "Ġlong": 849,
      "Ġbr": 850,
      "ures": 851,
      "Ġstud": 852,
      "Ġra": 853,
      "pect": 854,
      "ock": 855,
      "Ġown": 856,
      "Ġass": 857,
      "erson": 858,
      "Ġend": 859,
      "gan": 860,
      "ĠAl": 861,
      "ices": 862,
      "Ġfun": 863,
      ").": 864,
      "ave": 865,
      "ular": 866,
      "Ġtake": 867,
      "irl": 868,
      "bs": 869,
      "ax": 870,
      "cess": 871,
      "Ġsomet": 872,
      "Ġdon": 873,
      "ĠCom": 874,
      "Ġright": 875,
      "ident": 876,
      "ull": 877,
      "hip": 878,
      "Ġins": 879,
      "Ġhappy": 880,
      "rib": 881,
      "ics": 882,
      "Ġbefore": 883,
      "any": 884,
      "Ġsaw": 885,
      "Ġcall": 886,
      "Ġgreat": 887,
      "Ġac": 888,
      "ible": 889,
      "ouse": 890,
      "Ġhigh": 891,
      "ĠDe": 892,
      "air": 893,
      "arn": 894,
      "Ġfound": 895,
      "ts": 896,
      "Ġsuch": 897,
      "olog": 898,
      "ix": 899,
      "Ġgu": 900,
      "Ġent": 901,
      "Ġbeing": 902,
      "Ġsur": 903,
      "its": 904,
      "up": 905,
      "iness": 906,
      "ollow": 907,
      "ility": 908,
      "Ġbest": 909,
      "Ġset": 910,
      "Ġthough": 911,
      "ven": 912,
      "Ġbus": 913,
      "Ġexper": 914,
      "ative": 915,
      "Ġop": 916,
      "Ġthink": 917,
      "ble": 918,
      "ank": 919,
      "Ġmon": 920,
      "velop": 921,
      "ener": 922,
      "Ġ7": 923,
      "arch": 924,
      "Ġfam": 925,
      "ĠFor": 926,
      "Ġread": 927,
      "Ġhand": 928,
      "ared": 929,
      "atch": 930,
      "ason": 931,
      "Ġinst": 932,
      "land": 933,
      "com": 934,
      "Ġ$": 935,
      "Ġwhile": 936,
      "ĠPro": 937,
      "ork": 938,
      "Ġcare": 939,
      "ĠTim": 940,
      "Ġloc": 941,
      "Ġbo": 942,
      "ĠNew": 943,
      "stem": 944,
      "ience": 945,
      "pr": 946,
      "Ġdiffe": 947,
      "alk": 948,
      "ng": 949,
      "ird": 950,
      "Ġpres": 951,
      "Ġeach": 952,
      "ins": 953,
      "Ġpol": 954,
      "ower": 955,
      "ced": 956,
      "ually": 957,
      "Ġmin": 958,
      "Ġgr": 959,
      "ĠSo": 960,
      "Ġche": 961,
      "Ġfeel": 962,
      "Ġwanted": 963,
      "az": 964,
      "ner": 965,
      "Ġ8": 966,
      "und": 967,
      "Ġdoes": 968,
      ".âĢĿ": 969,
      "alth": 970,
      "Ġ10": 971,
      "Ġused": 972,
      "||": 973,
      "io": 974,
      "ving": 975,
      "Ġworld": 976,
      "Ġgirl": 977,
      "Ġstr": 978,
      "led": 979,
      "chool": 980,
      "Ġhere": 981,
      "Ġwee": 982,
      "Ġrun": 983,
      "ĠSh": 984,
      "ĠBe": 985,
      "Ġfollow": 986,
      "formation": 987,
      "ros": 988,
      "ved": 989,
      "Ġwent": 990,
      "ĠOnce": 991,
      "arm": 992,
      "ces": 993,
      "ters": 994,
      "ather": 995,
      "Ġput": 996,
      "ĠJo": 997,
      "ĠĠ": 998,
      "Ġthose": 999,
      "ways": 1000,
      "Ġperson": 1001,
      "Ġupon": 1002,
      "Ġsomething": 1003,
      "Ġthings": 1004,
      "Ġcre": 1005,
      "Ġret": 1006,
      "ĠLe": 1007,
      "Ġ|": 1008,
      "Ġnum": 1009,
      "oved": 1010,
      "ient": 1011,
      "Ġboth": 1012,
      "ars": 1013,
      "Ġsk": 1014,
      "ĠAr": 1015,
      "rest": 1016,
      "ince": 1017,
      "Ġ&": 1018,
      "),": 1019,
      "ĠThere": 1020,
      "Ġsub": 1021,
      "Ġinte": 1022,
      "!\"": 1023,
      "ale": 1024,
      "ues": 1025,
      "Ġthree": 1026,
      "ided": 1027,
      "ween": 1028,
      "Ġdisc": 1029,
      "Ġlot": 1030,
      "Ġstill": 1031,
      "Ġlife": 1032,
      ",\"": 1033,
      "Ġmem": 1034,
      "Ġ9": 1035,
      "Ġinter": 1036,
      "ĠBen": 1037,
      "oun": 1038,
      "Ġmark": 1039,
      "ĠHow": 1040,
      "iet": 1041,
      "Ġfriends": 1042,
      "Ġrequ": 1043,
      "Ġlast": 1044,
      "Ġpub": 1045,
      "akes": 1046,
      "ĠWhen": 1047,
      "Ġadv": 1048,
      "Ġdevelop": 1049,
      "Ġbook": 1050,
      "Ġsim": 1051,
      "ric": 1052,
      "ĠCl": 1053,
      "ah": 1054,
      "Ġlead": 1055,
      "Ġsay": 1056,
      "Ġchar": 1057,
      "ier": 1058,
      "Ġgoing": 1059,
      "Ġreal": 1060,
      "Ġtrans": 1061,
      "Ġser": 1062,
      "der": 1063,
      "Ġform": 1064,
      "Ġmod": 1065,
      "Ġmed": 1066,
      "Ġteam": 1067,
      "Ġbetween": 1068,
      "Ġart": 1069,
      "ĠTom": 1070,
      "Ġtri": 1071,
      "ffect": 1072,
      "Ġav": 1073,
      "Ġaway": 1074,
      "ps": 1075,
      "meric": 1076,
      "Ġcount": 1077,
      "iel": 1078,
      "Ġchild": 1079,
      "Ġopen": 1080,
      "man": 1081,
      "Ġcur": 1082,
      "Ġgot": 1083,
      "ives": 1084,
      "Ġcle": 1085,
      "cept": 1086,
      "irect": 1087,
      "amed": 1088,
      "Ġdesign": 1089,
      "ines": 1090,
      "Ġsystem": 1091,
      "Ġvis": 1092,
      "Ġsays": 1093,
      "ished": 1094,
      "pped": 1095,
      "Ġfil": 1096,
      "line": 1097,
      "lease": 1098,
      "gram": 1099,
      "ash": 1100,
      "Ġlist": 1101,
      "Ġreally": 1102,
      "be": 1103,
      "ames": 1104,
      "Ġsign": 1105,
      "Ġbusiness": 1106,
      "Ġmet": 1107,
      "Ġdifferent": 1108,
      "Ġgame": 1109,
      "view": 1110,
      "read": 1111,
      "ized": 1112,
      "elt": 1113,
      "Ġdet": 1114,
      "self": 1115,
      "Ġ18": 1116,
      "ired": 1117,
      "uc": 1118,
      "Ġpoint": 1119,
      "Ġalways": 1120,
      "Ġcomple": 1121,
      "Ġplace": 1122,
      "Ġinformation": 1123,
      "Ġcour": 1124,
      "imes": 1125,
      "Ġlove": 1126,
      "Ġbro": 1127,
      "ets": 1128,
      "Ġexp": 1129,
      "ness": 1130,
      "Ġsame": 1131,
      "ivers": 1132,
      "000": 1133,
      "Ġold": 1134,
      "Ġsmall": 1135,
      "Ġwater": 1136,
      "Ġduring": 1137,
      "orn": 1138,
      "Ġear": 1139,
      "ĠAmeric": 1140,
      "ĠAd": 1141,
      "ple": 1142,
      "ution": 1143,
      "Ġgl": 1144,
      "ever": 1145,
      "ton": 1146,
      "20": 1147,
      "ĠAt": 1148,
      "Ġtoget": 1149,
      "Ġtogether": 1150,
      "Ġsupport": 1151,
      "Ġed": 1152,
      "chn": 1153,
      "ene": 1154,
      "ature": 1155,
      "Ġsl": 1156,
      "ute": 1157,
      "Ġlar": 1158,
      "Ġexc": 1159,
      "ages": 1160,
      "gg": 1161,
      "Ġbel": 1162,
      "ize": 1163,
      "Ġimport": 1164,
      "Ġfr": 1165,
      "Ġnever": 1166,
      "Ġrep": 1167,
      "Ġcent": 1168,
      "ross": 1169,
      "Ġaut": 1170,
      "Ġfew": 1171,
      "Ġproduct": 1172,
      "Ġexpl": 1173,
      "Ġplan": 1174,
      "Ġcome": 1175,
      "rand": 1176,
      "Ġdel": 1177,
      "ined": 1178,
      "ĠAll": 1179,
      "Ġbetter": 1180,
      "Ġunt": 1181,
      "Ġcontin": 1182,
      "ional": 1183,
      "att": 1184,
      "Ġstarted": 1185,
      "Ġpur": 1186,
      "vern": 1187,
      "Ġcr": 1188,
      "Ġasked": 1189,
      "Ġtop": 1190,
      "ged": 1191,
      "Ġcommun": 1192,
      "Ġeas": 1193,
      "Ġmus": 1194,
      "Ġkeep": 1195,
      "thing": 1196,
      "Ġfamily": 1197,
      "Ġtry": 1198,
      "ants": 1199,
      "ody": 1200,
      "Ġstate": 1201,
      "Ġext": 1202,
      "Ġgener": 1203,
      "Ġhead": 1204,
      "Ġfree": 1205,
      "Ġlet": 1206,
      "Ġnext": 1207,
      "ital": 1208,
      "ĠSc": 1209,
      ",âĢĿ": 1210,
      "side": 1211,
      "ield": 1212,
      "Ġref": 1213,
      "ĠBl": 1214,
      "Ġsecond": 1215,
      "Ġrest": 1216,
      "ves": 1217,
      "oot": 1218,
      "ĠWhat": 1219,
      "bers": 1220,
      "ĠTe": 1221,
      "Ġcame": 1222,
      "Ġprogram": 1223,
      "Ġpost": 1224,
      "ata": 1225,
      "Ġdist": 1226,
      "Ġincluding": 1227,
      "Ġhard": 1228,
      "Ġide": 1229,
      "ised": 1230,
      "ms": 1231,
      "ten": 1232,
      "ger": 1233,
      "ists": 1234,
      "Ġpass": 1235,
      "Ġanother": 1236,
      "Ġfelt": 1237,
      "uck": 1238,
      "Ġmonth": 1239,
      "Ġwr": 1240,
      "na": 1241,
      "ract": 1242,
      "Ġspecial": 1243,
      "Ġnamed": 1244,
      "Ġuntil": 1245,
      "oad": 1246,
      "Ġschool": 1247,
      "ision": 1248,
      "iving": 1249,
      "Ġprof": 1250,
      "Ġmain": 1251,
      "ĠTo": 1252,
      "ustom": 1253,
      "less": 1254,
      "?\"": 1255,
      "ern": 1256,
      "uss": 1257,
      "ĠQ": 1258,
      "Ġtook": 1259,
      "els": 1260,
      "Ġappro": 1261,
      "Ġbuild": 1262,
      "ĠSp": 1263,
      "ike": 1264,
      "ered": 1265,
      "ĠFr": 1266,
      "here": 1267,
      "ially": 1268,
      "ining": 1269,
      "Ġpartic": 1270,
      "Ġnumber": 1271,
      "hn": 1272,
      "Ġprocess": 1273,
      "Ġgrou": 1274,
      "reen": 1275,
      "Ġob": 1276,
      "ived": 1277,
      "ĠPl": 1278,
      "Ġsw": 1279,
      "Ġresult": 1280,
      "Ġdef": 1281,
      "Ġ0": 1282,
      "Ġfact": 1283,
      "outh": 1284,
      "br": 1285,
      "Ġreport": 1286,
      "ĠIs": 1287,
      "ĠâĢĶ": 1288,
      "aj": 1289,
      "Ġdidn": 1290,
      "Ġ:": 1291,
      "Ġperform": 1292,
      "Ġconf": 1293,
      "Ġrece": 1294,
      "Ġallow": 1295,
      "ology": 1296,
      "Ġdri": 1297,
      "Ġposs": 1298,
      "iled": 1299,
      "ically": 1300,
      "Ġvar": 1301,
      "ral": 1302,
      "Ġhealth": 1303,
      "Ġpat": 1304,
      "Ġwithout": 1305,
      "ides": 1306,
      "Ġlearn": 1307,
      "Ġimportant": 1308,
      "Ġsing": 1309,
      "aut": 1310,
      "Ġty": 1311,
      "ling": 1312,
      "augh": 1313,
      "ĠAfter": 1314,
      "Ġagainst": 1315,
      "ider": 1316,
      "Ġresp": 1317,
      "ĠInd": 1318,
      "ĠThat": 1319,
      "Ġhouse": 1320,
      "Ġcor": 1321,
      "ense": 1322,
      "Ġiss": 1323,
      "Ġdirect": 1324,
      "Ġturn": 1325,
      "ailable": 1326,
      "ention": 1327,
      "illion": 1328,
      "Ġfour": 1329,
      "Ġboy": 1330,
      "Ġinterest": 1331,
      "Ġstand": 1332,
      "Ġroom": 1333,
      "ality": 1334,
      "Ġusing": 1335,
      "Ġsol": 1336,
      "ane": 1337,
      "Ġmust": 1338,
      "cent": 1339,
      "Ġtechn": 1340,
      "ural": 1341,
      "Ġpri": 1342,
      "ted": 1343,
      "ĠCol": 1344,
      "gy": 1345,
      "ĠEx": 1346,
      "Ġwom": 1347,
      "Ġlooked": 1348,
      "Ġorgan": 1349,
      "Ġca": 1350,
      "ĠZ": 1351,
      "ump": 1352,
      "ately": 1353,
      "Ġmight": 1354,
      "Ġthought": 1355,
      "ccess": 1356,
      "Ġsince": 1357,
      "Ġ12": 1358,
      "Ġval": 1359,
      "Ġloved": 1360,
      "orth": 1361,
      "Ġgive": 1362,
      "ruct": 1363,
      "oney": 1364,
      "stand": 1365,
      "ĠJohn": 1366,
      "ism": 1367,
      "Ġinf": 1368,
      "con": 1369,
      "ny": 1370,
      "Ġwin": 1371,
      "Ġclass": 1372,
      "Ġquest": 1373,
      "ret": 1374,
      "Ġmarket": 1375,
      "Ġsoc": 1376,
      "Ġcompany": 1377,
      "inal": 1378,
      "Ġpark": 1379,
      "Ġeffect": 1380,
      "Ġless": 1381,
      "Ġbre": 1382,
      "ĠCon": 1383,
      "Ġsure": 1384,
      "ĠChr": 1385,
      "Ġopp": 1386,
      "ĠPh": 1387,
      "Ġincre": 1388,
      "Ġprom": 1389,
      "Ġpublic": 1390,
      "Ġcalled": 1391,
      "ember": 1392,
      "Ġweek": 1393,
      "ĠWith": 1394,
      "Ġrecord": 1395,
      "Ġpower": 1396,
      "Ġnear": 1397,
      "Ġpop": 1398,
      "Ġpos": 1399,
      "Ġfull": 1400,
      "tend": 1401,
      "ĠTr": 1402,
      "Ġel": 1403,
      "Ġcustom": 1404,
      "ploy": 1405,
      "by": 1406,
      "Ġdays": 1407,
      "Ġavailable": 1408,
      "me": 1409,
      "Ġkind": 1410,
      "Ġable": 1411,
      "Ġpay": 1412,
      "Ġran": 1413,
      "Ġbelie": 1414,
      "ats": 1415,
      "rol": 1416,
      "que": 1417,
      "co": 1418,
      "Ġdra": 1419,
      "ĠOr": 1420,
      "osed": 1421,
      "Ġ15": 1422,
      "The": 1423,
      "ury": 1424,
      "Ġopt": 1425,
      "pend": 1426,
      "iver": 1427,
      "Ġproject": 1428,
      "Ġ199": 1429,
      "Ġve": 1430,
      "ertain": 1431,
      "iversity": 1432,
      "ĠUS": 1433,
      "ĠMay": 1434,
      "ering": 1435,
      "Ġproble": 1436,
      "ium": 1437,
      "...": 1438,
      "Ġest": 1439,
      "Ġtru": 1440,
      "ĠCan": 1441,
      "Ġlight": 1442,
      "Ġi": 1443,
      "Ġseason": 1444,
      "ott": 1445,
      "Ġfood": 1446,
      "Ġgrow": 1447,
      "Ġlevel": 1448,
      "ĠMar": 1449,
      "ĠâĢĺ": 1450,
      "Ġlaw": 1451,
      "Ġsit": 1452,
      "ley": 1453,
      "ched": 1454,
      "Ġprev": 1455,
      "Ġoper": 1456,
      "Ġbeh": 1457,
      "Ġleg": 1458,
      "Ġmaking": 1459,
      "Ġexperience": 1460,
      "Ġplaying": 1461,
      "ards": 1462,
      "ained": 1463,
      "ior": 1464,
      "Ġ11": 1465,
      "Ġgovern": 1466,
      "Ġcost": 1467,
      "Ġservice": 1468,
      "ission": 1469,
      "ample": 1470,
      "rence": 1471,
      "ode": 1472,
      "den": 1473,
      "raph": 1474,
      "ĠNo": 1475,
      "ours": 1476,
      "Ġnight": 1477,
      "ently": 1478,
      "Ġair": 1479,
      "gin": 1480,
      "Ġbird": 1481,
      "Ġlater": 1482,
      "joy": 1483,
      "ope": 1484,
      "Ġname": 1485,
      "ĠMe": 1486,
      "med": 1487,
      "veral": 1488,
      "Ġann": 1489,
      "âĢ¦": 1490,
      "ware": 1491,
      "Ġchildren": 1492,
      "Ġleft": 1493,
      "ik": 1494,
      "Ġinvest": 1495,
      "Ġtest": 1496,
      "Ġtold": 1497,
      "ids": 1498,
      "Ġarea": 1499,
      "'m": 1500,
      "Ġseem": 1501,
      "Ġhum": 1502,
      "Ġwithin": 1503,
      "Ġ[": 1504,
      "Ġalong": 1505,
      "ĠComm": 1506,
      "Ġorder": 1507,
      "Ġlarge": 1508,
      "Ġlooking": 1509,
      "Ġsmiled": 1510,
      "Ġfore": 1511,
      "ains": 1512,
      "ases": 1513,
      "Ġeng": 1514,
      "ron": 1515,
      "Ġmeet": 1516,
      "Ġstory": 1517,
      "atter": 1518,
      "Ġdata": 1519,
      "ĠTimmy": 1520,
      "Ġhist": 1521,
      "Ġdep": 1522,
      "new": 1523,
      "ina": 1524,
      "Ġhaving": 1525,
      "ream": 1526,
      "work": 1527,
      "Ġjo": 1528,
      "arent": 1529,
      "ĠHis": 1530,
      "Ġsuccess": 1531,
      "Ġdecided": 1532,
      "10": 1533,
      "pping": 1534,
      "ney": 1535,
      "Ġview": 1536,
      "ator": 1537,
      "pec": 1538,
      "Ġonline": 1539,
      "aring": 1540,
      "ency": 1541,
      "Ġprote": 1542,
      "Ġmusic": 1543,
      "Ġwrit": 1544,
      "Ġfac": 1545,
      "ĠMy": 1546,
      "ĠHer": 1547,
      "ox": 1548,
      "iting": 1549,
      "âĤ": 1550,
      "ffic": 1551,
      "Ġdog": 1552,
      "Ġrese": 1553,
      "Ġconst": 1554,
      "Ġever": 1555,
      "Ġdem": 1556,
      "Ġ;": 1557,
      "ortun": 1558,
      "mber": 1559,
      "ote": 1560,
      "ER": 1561,
      "Ġdr": 1562,
      "Ġmov": 1563,
      "ably": 1564,
      "Ġaddition": 1565,
      "Ġtell": 1566,
      "Ġoutside": 1567,
      "âĤ¬": 1568,
      "Ġmove": 1569,
      "Ġthing": 1570,
      "ĠEng": 1571,
      "Ġevent": 1572,
      "Ġcap": 1573,
      "ories": 1574,
      "ĠSam": 1575,
      "Ġball": 1576,
      "to": 1577,
      "Ġvide": 1578,
      "lish": 1579,
      "Ġcurrent": 1580,
      "ified": 1581,
      "Ġpick": 1582,
      "Th": 1583,
      "ĠDo": 1584,
      "Ġbas": 1585,
      "Ġprovide": 1586,
      "Ġpresent": 1587,
      "Ġjob": 1588,
      "ries": 1589,
      "Ġequ": 1590,
      "wards": 1591,
      "Ġtoday": 1592,
      "Ġworking": 1593,
      "let": 1594,
      "Ġland": 1595,
      "Ġenjoy": 1596,
      "Ġgroup": 1597,
      "Ã¢": 1598,
      "Ġpast": 1599,
      "Ġwhy": 1600,
      "ients": 1601,
      "Ġmar": 1602,
      "Ġcharac": 1603,
      "eng": 1604,
      "ajor": 1605,
      "hor": 1606,
      "ĠMan": 1607,
      "Ġpa": 1608,
      "Ġside": 1609,
      "Ġtre": 1610,
      "ĠChrist": 1611,
      "Ġele": 1612,
      "Ġbeaut": 1613,
      "por": 1614,
      "ery": 1615,
      "Ġword": 1616,
      "Ġseveral": 1617,
      "Ġpain": 1618,
      "Ġsal": 1619,
      "Ġes": 1620,
      "oice": 1621,
      "Ġwa": 1622,
      "Ġchang": 1623,
      "Ġmoney": 1624,
      "Ġproper": 1625,
      "Ġmil": 1626,
      "oll": 1627,
      "son": 1628,
      "Ġlocal": 1629,
      "ĠMom": 1630,
      "aster": 1631,
      "Ġfar": 1632,
      "Ġcourse": 1633,
      "Ġsong": 1634,
      "ĠBr": 1635,
      "the": 1636,
      "ĠAmerican": 1637,
      "Ġunderstand": 1638,
      "Ġpract": 1639,
      "Ġ/": 1640,
      "Ġoften": 1641,
      "Ġoffic": 1642,
      "itions": 1643,
      "iven": 1644,
      "Ġcase": 1645,
      "Ġfilm": 1646,
      "ored": 1647,
      "oci": 1648,
      "Ġaccess": 1649,
      "ĠRes": 1650,
      "sh": 1651,
      "used": 1652,
      "Ġcreat": 1653,
      "une": 1654,
      "Ġste": 1655,
      "Ġbit": 1656,
      "ued": 1657,
      "Ġey": 1658,
      "ĠCar": 1659,
      "Ġterm": 1660,
      "rop": 1661,
      "Ġsad": 1662,
      "aim": 1663,
      "ivid": 1664,
      "Ġservices": 1665,
      "Ġreturn": 1666,
      "ĠÂ": 1667,
      "Ġmean": 1668,
      "Ġquick": 1669,
      "Ġphot": 1670,
      "Ġfav": 1671,
      "iam": 1672,
      "ĠCent": 1673,
      "iron": 1674,
      "Ġchange": 1675,
      "Ġshort": 1676,
      "ĠHowever": 1677,
      "Ġwind": 1678,
      "ĠSte": 1679,
      "iety": 1680,
      "Ġorig": 1681,
      "ills": 1682,
      "ording": 1683,
      "ĠFl": 1684,
      "Ġtimes": 1685,
      "Ġintern": 1686,
      "Ġline": 1687,
      "alf": 1688,
      "Ġdone": 1689,
      "50": 1690,
      "utes": 1691,
      "Ġenough": 1692,
      "Ġconc": 1693,
      "Ġstrong": 1694,
      "ising": 1695,
      "Ġ30": 1696,
      "'re": 1697,
      "Ġocc": 1698,
      "ried": 1699,
      "Ġfollowing": 1700,
      "Ġmillion": 1701,
      "ration": 1702,
      "ination": 1703,
      "ened": 1704,
      "ok": 1705,
      "Ġimpro": 1706,
      "ots": 1707,
      "ĠUnited": 1708,
      "Ġtreat": 1709,
      "19": 1710,
      "ĠFrom": 1711,
      "Ġsite": 1712,
      "âĢĶ": 1713,
      "Ġmen": 1714,
      "Ġbuy": 1715,
      "Ġshare": 1716,
      "Ġbecome": 1717,
      "ĠThese": 1718,
      "Ġelect": 1719,
      "Ġwalk": 1720,
      "ĠFe": 1721,
      "Ġwebs": 1722,
      "Ġstay": 1723,
      "ĠCo": 1724,
      "ization": 1725,
      "Ġsound": 1726,
      "Ġactiv": 1727,
      "Ġhold": 1728,
      "min": 1729,
      "Ġprofess": 1730,
      "Ġstudents": 1731,
      "itive": 1732,
      "Ġ16": 1733,
      "Ġ17": 1734,
      "Ġearly": 1735,
      "Ġothers": 1736,
      "icle": 1737,
      "Ġwon": 1738,
      "ĠPr": 1739,
      "Ġplayed": 1740,
      "ĠGod": 1741,
      "Ġcomplete": 1742,
      "ober": 1743,
      "Ġrele": 1744,
      "ĠSu": 1745,
      "ential": 1746,
      "Ġemploy": 1747,
      "Ġmembers": 1748,
      "30": 1749,
      "ability": 1750,
      "Ġreview": 1751,
      "Ġcamp": 1752,
      "Ġbased": 1753,
      "ush": 1754,
      "iful": 1755,
      "Ġcond": 1756,
      "oon": 1757,
      "ured": 1758,
      "Ġmajor": 1759,
      "Ġanim": 1760,
      "rew": 1761,
      "Ġred": 1762,
      "crib": 1763,
      "ify": 1764,
      "Ġmakes": 1765,
      "Ġexpect": 1766,
      "Ġknown": 1767,
      "Ġgovernment": 1768,
      "ĠUniversity": 1769,
      "oor": 1770,
      "conom": 1771,
      ".,": 1772,
      "ara": 1773,
      "Ġdoing": 1774,
      "Ġindust": 1775,
      "Ġinside": 1776,
      "Ġgave": 1777,
      "Ġpot": 1778,
      "Ġinclude": 1779,
      "Ġrepl": 1780,
      "Ġcountry": 1781,
      "ster": 1782,
      "Ġcity": 1783,
      "ĠAm": 1784,
      "ĠWor": 1785,
      "Ġbody": 1786,
      "ister": 1787,
      "Ġdev": 1788,
      "Ġsn": 1789,
      "oint": 1790,
      "Ġyoung": 1791,
      "ividual": 1792,
      "uro": 1793,
      "ready": 1794,
      "Ġtrad": 1795,
      "Ġcheck": 1796,
      "ians": 1797,
      "Ġsun": 1798,
      "ec": 1799,
      "inc": 1800,
      "ances": 1801,
      "agement": 1802,
      "Ġbecame": 1803,
      "urs": 1804,
      "Ġlive": 1805,
      "though": 1806,
      "ann": 1807,
      "Ġce": 1808,
      "ĠEvery": 1809,
      "Ġla": 1810,
      "Ġ14": 1811,
      "Ġseries": 1812,
      "Ġbad": 1813,
      "illed": 1814,
      "Ġacross": 1815,
      "ony": 1816,
      "Ġwar": 1817,
      "uff": 1818,
      "Ġgetting": 1819,
      "Ġcolle": 1820,
      "Ġcou": 1821,
      "Ġtalk": 1822,
      "ĠJack": 1823,
      "ĠBy": 1824,
      "fic": 1825,
      "ither": 1826,
      "Ġexcited": 1827,
      "oud": 1828,
      "Ġcontrol": 1829,
      "app": 1830,
      "Ġknew": 1831,
      "Ġclose": 1832,
      "lished": 1833,
      "Ġwomen": 1834,
      "Ġbox": 1835,
      "ĠThen": 1836,
      "fer": 1837,
      "Ġclean": 1838,
      "aterial": 1839,
      "Ġcommunity": 1840,
      "omm": 1841,
      "ĠOur": 1842,
      "Ġvisit": 1843,
      "ead": 1844,
      "Ġsoft": 1845,
      "Ġfur": 1846,
      "Ġconne": 1847,
      "Ġfive": 1848,
      "Ġapplic": 1849,
      "Ġfoc": 1850,
      "Ġbene": 1851,
      "orts": 1852,
      "ww": 1853,
      "ex": 1854,
      "Ġalready": 1855,
      "Ġflow": 1856,
      "ape": 1857,
      "Ġidea": 1858,
      "IN": 1859,
      "sel": 1860,
      "Ġmor": 1861,
      "Ġappear": 1862,
      "aces": 1863,
      "ones": 1864,
      "Ġaccount": 1865,
      "Ġpossible": 1866,
      "ript": 1867,
      "osp": 1868,
      "Ġlim": 1869,
      "Ġhig": 1870,
      "Ġseen": 1871,
      "atic": 1872,
      "Ġvers": 1873,
      "ique": 1874,
      "Ġlow": 1875,
      "Ġpie": 1876,
      "most": 1877,
      "Ġcut": 1878,
      "enn": 1879,
      "duct": 1880,
      "yle": 1881,
      "Ġmag": 1882,
      "Ġoffer": 1883,
      "ĠApp": 1884,
      "Ġsoon": 1885,
      "ĠEn": 1886,
      "Ġface": 1887,
      "Ġindividual": 1888,
      "Ġnon": 1889,
      "Ġnews": 1890,
      "use": 1891,
      "Ġhot": 1892,
      "ball": 1893,
      "aff": 1894,
      "Ġ13": 1895,
      "Ġbeautiful": 1896,
      "Ġgames": 1897,
      "Ġvideo": 1898,
      "iding": 1899,
      "Ġneeds": 1900,
      "Ġcertain": 1901,
      "acy": 1902,
      "reet": 1903,
      "Ġnice": 1904,
      "ung": 1905,
      ".@": 1906,
      "Ġresearch": 1907,
      "Ġ@.@": 1908,
      "of": 1909,
      "We": 1910,
      "ĠEm": 1911,
      "Ġliked": 1912,
      "uture": 1913,
      "Ġground": 1914,
      "room": 1915,
      "Ġz": 1916,
      "Ġparticular": 1917,
      "ama": 1918,
      "Ġproducts": 1919,
      "Ġmeans": 1920,
      "atures": 1921,
      "Ġinvol": 1922,
      "Ġcomes": 1923,
      "Ġsocial": 1924,
      "rap": 1925,
      "Ġpar": 1926,
      "Ġpersonal": 1927,
      "tt": 1928,
      "ails": 1929,
      "Ġonce": 1930,
      "aken": 1931,
      "Ġfund": 1932,
      "ows": 1933,
      "Ġmind": 1934,
      "ison": 1935,
      "bo": 1936,
      "Ġsingle": 1937,
      "Ġleast": 1938,
      "Ġeasy": 1939,
      "Ġbegan": 1940,
      "rown": 1941,
      "load": 1942,
      "Ġcrit": 1943,
      "Ġheard": 1944,
      "viron": 1945,
      "Ġquality": 1946,
      "Ġpict": 1947,
      "Ġnet": 1948,
      "Ġtem": 1949,
      "Ġwatch": 1950,
      "ilt": 1951,
      "Ġwebsite": 1952,
      "ienc": 1953,
      "Ġcompet": 1954,
      "Ġdevelopment": 1955,
      "ches": 1956,
      "Ġeduc": 1957,
      "ges": 1958,
      "ĠRep": 1959,
      "Ġperfect": 1960,
      "Ġpret": 1961,
      "Ġask": 1962,
      "ON": 1963,
      "Ġep": 1964,
      "Ġsafe": 1965,
      "Ġstore": 1966,
      "iod": 1967,
      "Ġtried": 1968,
      "ograph": 1969,
      "Ġant": 1970,
      "ĠX": 1971,
      "ĠComp": 1972,
      "ĠNot": 1973,
      "Ġbra": 1974,
      ",@": 1975,
      "yl": 1976,
      "Ġ@,@": 1977,
      "Ġhug": 1978,
      "Ġwond": 1979,
      "Ġclear": 1980,
      "irc": 1981,
      "Ġbring": 1982,
      "ulation": 1983,
      "Ġcreate": 1984,
      "Ġtree": 1985,
      "aps": 1986,
      "err": 1987,
      "Ġactually": 1988,
      "ĠMed": 1989,
      "Ġpress": 1990,
      "ĠGu": 1991,
      "Ġfield": 1992,
      "Ġmaterial": 1993,
      "Ġsum": 1994,
      "icy": 1995,
      "over": 1996,
      "Ġmonths": 1997,
      "ĠCont": 1998,
      "It": 1999,
      "Ġmult": 2000,
      "Ġdeal": 2001,
      "Ġhours": 2002,
      "Ġconsider": 2003,
      "Ġbreak": 2004,
      "resent": 2005,
      "ĠYork": 2006,
      "12": 2007,
      "fully": 2008,
      "ips": 2009,
      "ĠAust": 2010,
      "Ġmess": 2011,
      "Ġpretty": 2012,
      "ĠWhile": 2013,
      "Ġheart": 2014,
      "acks": 2015,
      "ĠNow": 2016,
      "ĠMax": 2017,
      "Ġmid": 2018,
      "Ġopportun": 2019,
      "Ġkey": 2020,
      "ilar": 2021,
      "ino": 2022,
      "Ġfall": 2023,
      "Ġgiven": 2024,
      "ĠMc": 2025,
      "Ġ100": 2026,
      "unch": 2027,
      "ĠJan": 2028,
      "Ġdue": 2029,
      "Ġcomb": 2030,
      "Ġeveryone": 2031,
      "urch": 2032,
      "Ġ198": 2033,
      "ĠAb": 2034,
      "Ġanal": 2035,
      "AT": 2036,
      "oose": 2037,
      "Ġident": 2038,
      "ĠSy": 2039,
      "Ġbed": 2040,
      "ĠAss": 2041,
      "Ġstudy": 2042,
      "ĠStates": 2043,
      "ĠEd": 2044,
      "ES": 2045,
      "Ġfuture": 2046,
      "artment": 2047,
      "Ġport": 2048,
      "ole": 2049,
      "Ġcontact": 2050,
      "Ġpolit": 2051,
      "Ġdoesn": 2052,
      "Ġcover": 2053,
      "Ġamong": 2054,
      "ĠWill": 2055,
      "Ġtyp": 2056,
      "Ġbegin": 2057,
      "Ġsix": 2058,
      "oring": 2059,
      "Ġfle": 2060,
      "ensive": 2061,
      "ference": 2062,
      "ĠEuro": 2063,
      "Ġfire": 2064,
      "ĠSome": 2065,
      "Ġexample": 2066,
      "Ġeconom": 2067,
      "ĠState": 2068,
      "ift": 2069,
      "ĠInst": 2070,
      "Ġeverything": 2071,
      "ĠChe": 2072,
      "ĠWorld": 2073,
      "Ġredu": 2074,
      "Ġsomeone": 2075,
      "ached": 2076,
      "ĠGr": 2077,
      "par": 2078,
      "Ġpercent": 2079,
      "Ġtou": 2080,
      "Ġparent": 2081,
      "Ġauthor": 2082,
      "ĠIntern": 2083,
      "Ġheld": 2084,
      "Ġhuman": 2085,
      "not": 2086,
      "af": 2087,
      "rict": 2088,
      "Ġhalf": 2089,
      "ĠDes": 2090,
      "Ġprop": 2091,
      "ĠYour": 2092,
      "Ġtot": 2093,
      "arr": 2094,
      "Ġfast": 2095,
      "Ġspecific": 2096,
      "Ġdad": 2097,
      "Ġyet": 2098,
      "Ġfavor": 2099,
      "ĠTw": 2100,
      "hod": 2101,
      "Ġrelations": 2102,
      "ctor": 2103,
      "Ġanything": 2104,
      "sw": 2105,
      "aced": 2106,
      "Ġ25": 2107,
      "urity": 2108,
      "Ġclaim": 2109,
      "ma": 2110,
      "ĠMr": 2111,
      "Ġminutes": 2112,
      "ĠAug": 2113,
      "Ġcat": 2114,
      "ĠNorth": 2115,
      "vironment": 2116,
      "Ġgra": 2117,
      "idence": 2118,
      "Ġreason": 2119,
      "ourn": 2120,
      "Ġcharacter": 2121,
      "Ġhistory": 2122,
      "Ġsuper": 2123,
      "ĠJu": 2124,
      "ĠCount": 2125,
      "ĠGe": 2126,
      "isk": 2127,
      "Ġstop": 2128,
      "Ġtaking": 2129,
      "AR": 2130,
      "iously": 2131,
      "ateg": 2132,
      "Ġperiod": 2133,
      "ĠCal": 2134,
      "ĠGo": 2135,
      "Ġbuilding": 2136,
      "for": 2137,
      "Ġ24": 2138,
      "Ġstep": 2139,
      "Ġmiss": 2140,
      "Ġenc": 2141,
      "ĠPe": 2142,
      "Ġproblem": 2143,
      "urt": 2144,
      "ai": 2145,
      "Ġcouldn": 2146,
      "Ġvol": 2147,
      "ights": 2148,
      "aining": 2149,
      "Ġfront": 2150,
      "ĠSouth": 2151,
      "Ġlink": 2152,
      "sc": 2153,
      "'ll": 2154,
      "Ġthird": 2155,
      "Ġbehind": 2156,
      "book": 2157,
      "'ve": 2158,
      "ĠOct": 2159,
      "irt": 2160,
      "Ġspace": 2161,
      "ĠJust": 2162,
      "ĠMin": 2163,
      "wh": 2164,
      "Ġri": 2165,
      "ĠCity": 2166,
      "Ġscared": 2167,
      "bed": 2168,
      "Ġdiscuss": 2169,
      "ĠJe": 2170,
      "11": 2171,
      "aged": 2172,
      "Ġsugg": 2173,
      "Ġcook": 2174,
      "Ġsuggest": 2175,
      "Ġfurther": 2176,
      "Ġfre": 2177,
      "Ġcompan": 2178,
      "Ġwhole": 2179,
      "Ġbelieve": 2180,
      "Ġpriv": 2181,
      "bum": 2182,
      "Ġ--": 2183,
      "ĠKe": 2184,
      "Ġcoming": 2185,
      "Ġrock": 2186,
      "Ġplease": 2187,
      "Ġsour": 2188,
      "ging": 2189,
      "ilities": 2190,
      "arden": 2191,
      "Ġcult": 2192,
      "Ġneeded": 2193,
      "Ġbenef": 2194,
      "AN": 2195,
      "Ġpack": 2196,
      "rodu": 2197,
      "Ġchall": 2198,
      "Ġtax": 2199,
      "vent": 2200,
      "eral": 2201,
      "Ġblack": 2202,
      "Ġcommon": 2203,
      "ĠAnna": 2204,
      "Ġrequire": 2205,
      "ĠNational": 2206,
      "ĠBrit": 2207,
      "orry": 2208,
      "mb": 2209,
      "pecially": 2210,
      "Ġess": 2211,
      "ublic": 2212,
      "Ġmot": 2213,
      "Ġrespons": 2214,
      "Ġbelow": 2215,
      "ĠEurope": 2216,
      "Ġage": 2217,
      "ĠApr": 2218,
      "OR": 2219,
      "ille": 2220,
      "Ġdeb": 2221,
      "Ġener": 2222,
      "Ġsurpr": 2223,
      "empt": 2224,
      "Ġpage": 2225,
      "ogn": 2226,
      "Ġsat": 2227,
      "Ġ2012": 2228,
      "Ġquestion": 2229,
      "dle": 2230,
      "iday": 2231,
      "utions": 2232,
      "Wh": 2233,
      "itten": 2234,
      "atural": 2235,
      "Ġalmost": 2236,
      "asing": 2237,
      "Ġbar": 2238,
      "Ġsent": 2239,
      "Ġpurch": 2240,
      "ef": 2241,
      "selves": 2242,
      "Ġdam": 2243,
      "Ġhowever": 2244,
      "Ã©": 2245,
      "Ġprob": 2246,
      "hers": 2247,
      "Ġcal": 2248,
      "Ġet": 2249,
      "ners": 2250,
      "play": 2251,
      "ĠDr": 2252,
      "Ġabove": 2253,
      "roud": 2254,
      "ĠPres": 2255,
      "Ġeat": 2256,
      "ĠSept": 2257,
      "idge": 2258,
      "abor": 2259,
      "aur": 2260,
      "Ġwhite": 2261,
      "Ġfoot": 2262,
      "ises": 2263,
      "fact": 2264,
      "raft": 2265,
      "Ġindustry": 2266,
      "Ġreceived": 2267,
      "cer": 2268,
      "where": 2269,
      "Ġwhether": 2270,
      "Ġitem": 2271,
      "Ġtrying": 2272,
      "gest": 2273,
      "Ġsex": 2274,
      "ĠIm": 2275,
      "Ġclos": 2276,
      "Ġelse": 2277,
      "Ġcontent": 2278,
      "Ġquickly": 2279,
      "Ġfinal": 2280,
      "ental": 2281,
      "ĠServ": 2282,
      "ĠQu": 2283,
      "Ġworks": 2284,
      "ĠSm": 2285,
      "Ġtaken": 2286,
      "ibility": 2287,
      "ĠHere": 2288,
      "Ġtoys": 2289,
      "itted": 2290,
      "ĠSec": 2291,
      "ze": 2292,
      "Ġtravel": 2293,
      "Ġens": 2294,
      "Ġroad": 2295,
      "Ġhands": 2296,
      "Ġaud": 2297,
      "ĠJune": 2298,
      "go": 2299,
      "Ġdescrib": 2300,
      "Ġemail": 2301,
      "Ġamount": 2302,
      "roll": 2303,
      "Ġmeas": 2304,
      "ĠFin": 2305,
      "ruction": 2306,
      "Ġlost": 2307,
      "Ġswe": 2308,
      "Ġeff": 2309,
      "Ġentire": 2310,
      "Ġeither": 2311,
      "ĠMarch": 2312,
      "Ġtown": 2313,
      "Ġinfl": 2314,
      "lement": 2315,
      "Ġtool": 2316,
      "Ġprotect": 2317,
      "ee": 2318,
      "ocu": 2319,
      "Ġhope": 2320,
      "ĠAcc": 2321,
      "Ġproud": 2322,
      "Ġdeath": 2323,
      "ĠPer": 2324,
      "ively": 2325,
      "Ġmedia": 2326,
      "dy": 2327,
      "bit": 2328,
      "Ġphys": 2329,
      "fort": 2330,
      "Ġrange": 2331,
      "Ġsle": 2332,
      "irm": 2333,
      "Ġcred": 2334,
      "Ġliving": 2335,
      "ply": 2336,
      "itch": 2337,
      "ators": 2338,
      "ese": 2339,
      "Ġlearned": 2340,
      "Ġinit": 2341,
      "Ġself": 2342,
      "Ġfeatures": 2343,
      "Ġalbum": 2344,
      "ĠEl": 2345,
      "Ġsignific": 2346,
      "Ġband": 2347,
      "Ġ50": 2348,
      "uation": 2349,
      "ficult": 2350,
      "Ġparty": 2351,
      "Ġlate": 2352,
      "ĠPol": 2353,
      "ili": 2354,
      "Ġperformance": 2355,
      "Ġfocus": 2356,
      "15": 2357,
      "Ġarri": 2358,
      "Ġissues": 2359,
      "imate": 2360,
      "ĠApril": 2361,
      "pper": 2362,
      "come": 2363,
      "Ġrunning": 2364,
      "itc": 2365,
      "Ġrecomm": 2366,
      "Ġtit": 2367,
      "Ġang": 2368,
      "ief": 2369,
      "Ġpoints": 2370,
      "Ġrelationship": 2371,
      "Ġrole": 2372,
      "Ġposition": 2373,
      "Ġdoor": 2374,
      "ĠPark": 2375,
      "Ġprice": 2376,
      "!!": 2377,
      "Ġheav": 2378,
      "Ġareas": 2379,
      "Ġsell": 2380,
      "Ġrecommend": 2381,
      "ĠDon": 2382,
      "Ġcompanies": 2383,
      "Ġaff": 2384,
      "Ġcompl": 2385,
      "Ġaddress": 2386,
      "denly": 2387,
      "iny": 2388,
      "Ġfinanc": 2389,
      "Ġpaper": 2390,
      "cle": 2391,
      "Ġdi": 2392,
      "Ġdifficult": 2393,
      "Ġconnect": 2394,
      "ĠAugust": 2395,
      "Ġago": 2396,
      "overed": 2397,
      "Ġworked": 2398,
      "ask": 2399,
      "uary": 2400,
      "opped": 2401,
      "ĠPart": 2402,
      "Ġquestions": 2403,
      "Ġ*": 2404,
      "ĠWar": 2405,
      "Ġadded": 2406,
      "Ġvarious": 2407,
      "Ġsearch": 2408,
      "Ġtraining": 2409,
      "Ġ197": 2410,
      "Ġsimilar": 2411,
      "Ġespecially": 2412,
      "iol": 2413,
      "Ġdig": 2414,
      "Ġwriting": 2415,
      "umb": 2416,
      "Ġresults": 2417,
      "Ġoffice": 2418,
      "omes": 2419,
      "Ġenergy": 2420,
      "ager": 2421,
      "Ġ...": 2422,
      "ples": 2423,
      "ĠDav": 2424,
      "ĠGl": 2425,
      "ĠJuly": 2426,
      "Ġeyes": 2427,
      "Ġhimself": 2428,
      "Ġpopular": 2429,
      "Ġenvironment": 2430,
      "itting": 2431,
      "Ġkids": 2432,
      "eth": 2433,
      "val": 2434,
      "ĠBar": 2435,
      "Ġready": 2436,
      "Ġannoun": 2437,
      "Ġwal": 2438,
      "Ġ2013": 2439,
      "ĠMark": 2440,
      "gress": 2441,
      "Ġoriginal": 2442,
      "Ġrepresent": 2443,
      "Ġestab": 2444,
      "ites": 2445,
      "cript": 2446,
      "yn": 2447,
      "ĠMore": 2448,
      "Ġleav": 2449,
      "Ġsqu": 2450,
      "ler": 2451,
      "Ġparticip": 2452,
      "ening": 2453,
      "Ġwords": 2454,
      "chie": 2455,
      "ĠAustral": 2456,
      "Ġhon": 2457,
      "Ġamaz": 2458,
      "Ġdou": 2459,
      "Ġdest": 2460,
      "Ġwide": 2461,
      "ume": 2462,
      "isc": 2463,
      "Ġtype": 2464,
      "aching": 2465,
      "ĠSeptember": 2466,
      "Ġimprove": 2467,
      "ledge": 2468,
      "Ġrather": 2469,
      "Ġtable": 2470,
      "Ġrad": 2471,
      "Ġtrack": 2472,
      "Ġmommy": 2473,
      "ĠWest": 2474,
      "eter": 2475,
      "Ġtal": 2476,
      "Ġfail": 2477,
      "de": 2478,
      "ops": 2479,
      "ĠSchool": 2480,
      "Ġdraw": 2481,
      "Ġ#": 2482,
      "Ġhy": 2483,
      "Ġcollect": 2484,
      "Ġrespect": 2485,
      "ĠCor": 2486,
      "Ġhost": 2487,
      "Ġvalue": 2488,
      "Ġcirc": 2489,
      "Ġbrand": 2490,
      "angu": 2491,
      "Ġreleased": 2492,
      "AS": 2493,
      "ring": 2494,
      "Ġstat": 2495,
      "ĠGerm": 2496,
      "ĠAf": 2497,
      "ĠPa": 2498,
      "head": 2499,
      "Ġbooks": 2500,
      "Ġleave": 2501,
      "atur": 2502,
      "Ġtechnology": 2503,
      "org": 2504,
      "Ġquite": 2505,
      "ĠLet": 2506,
      "Ġ2011": 2507,
      "Ġsorry": 2508,
      "Ġcard": 2509,
      "Ġexist": 2510,
      "Ġmethod": 2511,
      "Ġincluded": 2512,
      "ival": 2513,
      "hern": 2514,
      "Ġaccept": 2515,
      "Ġblog": 2516,
      "ires": 2517,
      "attle": 2518,
      "Ġdiv": 2519,
      "ĠPre": 2520,
      "Ġdeterm": 2521,
      "pro": 2522,
      "Ġtakes": 2523,
      "anks": 2524,
      "Ġsignificant": 2525,
      "icated": 2526,
      "vert": 2527,
      "ague": 2528,
      "ĠOctober": 2529,
      "EN": 2530,
      "Ġstaff": 2531,
      "Ġmother": 2532,
      "Ġfell": 2533,
      "Ġlikely": 2534,
      "Ġspend": 2535,
      "Ġaction": 2536,
      "Ġnothing": 2537,
      "ana": 2538,
      "Ġ21": 2539,
      "Ġfeature": 2540,
      "Ġassist": 2541,
      "Ġcolor": 2542,
      "Ġtoy": 2543,
      "resh": 2544,
      "Ġsil": 2545,
      "Ġissue": 2546,
      "Ġnecess": 2547,
      "Ġcoll": 2548,
      "Ġrequired": 2549,
      "Ġcomput": 2550,
      "Ġansw": 2551,
      "hel": 2552,
      "Ġ2010": 2553,
      "Ġprovided": 2554,
      "ĠReg": 2555,
      "Ġepis": 2556,
      "Ġhit": 2557,
      "ĠBo": 2558,
      "Ġweeks": 2559,
      "Ġslow": 2560,
      "Ġwonder": 2561,
      "Ġdoll": 2562,
      "uge": 2563,
      "Ġhigher": 2564,
      "ĠFeb": 2565,
      "Ġforward": 2566,
      "Ġlots": 2567,
      "60": 2568,
      "Ġfeeling": 2569,
      "You": 2570,
      "Ġoil": 2571,
      "ĠHar": 2572,
      "Ġmatter": 2573,
      "ude": 2574,
      "Ġevents": 2575,
      "ĠDep": 2576,
      "era": 2577,
      "Ġdocu": 2578,
      "Ġmoment": 2579,
      "erc": 2580,
      "Ġlonger": 2581,
      "ĠChar": 2582,
      "Ġabs": 2583,
      "ĠNove": 2584,
      "ification": 2585,
      "Ġexam": 2586,
      "rel": 2587,
      "ham": 2588,
      "Ġformer": 2589,
      "Ġmatch": 2590,
      "Ġcell": 2591,
      "Ġtext": 2592,
      "Ġfish": 2593,
      "itor": 2594,
      "Ġprep": 2595,
      "oke": 2596,
      "Ġcreated": 2597,
      "ĠMich": 2598,
      "Ġwall": 2599,
      "Ġoffers": 2600,
      "Ġmat": 2601,
      "Ġprobably": 2602,
      "Ġways": 2603,
      "Ġgarden": 2604,
      "apt": 2605,
      "aby": 2606,
      "ĠHigh": 2607,
      "Ġfight": 2608,
      "ication": 2609,
      "Ġcoun": 2610,
      "aging": 2611,
      "Ġpull": 2612,
      "Ġmorning": 2613,
      "oph": 2614,
      "Ġparents": 2615,
      "iced": 2616,
      "ĠAct": 2617,
      "rought": 2618,
      "reme": 2619,
      "Ġcop": 2620,
      "Ġappe": 2621,
      "Ġgeneral": 2622,
      "Ġexperienc": 2623,
      "Ġsimple": 2624,
      "Ġselect": 2625,
      "Ġsize": 2626,
      "medi": 2627,
      "Ġkept": 2628,
      "ĠAmerica": 2629,
      "Ġinstall": 2630,
      "Ġcool": 2631,
      "Ġfly": 2632,
      "IS": 2633,
      "Ġdeep": 2634,
      "Ġbuilt": 2635,
      "Ġgen": 2636,
      "Ġopened": 2637,
      "ada": 2638,
      "ĠCounty": 2639,
      "obal": 2640,
      "Ġbott": 2641,
      "Ġap": 2642,
      "time": 2643,
      "Ġfig": 2644,
      "Ġstri": 2645,
      "Ġaccording": 2646,
      "Ġofficial": 2647,
      "Ġassoci": 2648,
      "Ġdefe": 2649,
      "Ġstra": 2650,
      "verage": 2651,
      "minist": 2652,
      "olution": 2653,
      "Ġanimals": 2654,
      "Ġprofessional": 2655,
      "Ġ22": 2656,
      "AL": 2657,
      "Ġversion": 2658,
      "ades": 2659,
      "ĠJanuary": 2660,
      "Ġmanagement": 2661,
      "Ġtouch": 2662,
      "back": 2663,
      "Ġcontinue": 2664,
      "reg": 2665,
      "ĠStud": 2666,
      "Ġproblems": 2667,
      "Ġrecogn": 2668,
      "itional": 2669,
      "Ġtotal": 2670,
      "Ġcustomers": 2671,
      "18": 2672,
      "Ġachie": 2673,
      "ables": 2674,
      "ady": 2675,
      "Ġsimply": 2676,
      "tain": 2677,
      "ĠPlease": 2678,
      "oid": 2679,
      "Ġjump": 2680,
      "Ġcand": 2681,
      "ffe": 2682,
      "clus": 2683,
      "Ġmember": 2684,
      "astic": 2685,
      "Ġlit": 2686,
      "Ġfavorite": 2687,
      "Ġproduction": 2688,
      "Ġlooks": 2689,
      "Ġattempt": 2690,
      "Ġsubject": 2691,
      "//": 2692,
      "Ġengine": 2693,
      "ĠNovember": 2694,
      "Ġinj": 2695,
      "Ġweb": 2696,
      "ĠKing": 2697,
      "Ġlog": 2698,
      "anced": 2699,
      "Ġsold": 2700,
      "âĢĵ": 2701,
      "Ġloss": 2702,
      "rug": 2703,
      "ety": 2704,
      "bor": 2705,
      "ules": 2706,
      "Ġthroughout": 2707,
      "Ġprovides": 2708,
      "Ġmix": 2709,
      "Ġcry": 2710,
      "nes": 2711,
      "lt": 2712,
      "Ġdro": 2713,
      "Ġhair": 2714,
      "Ġplayers": 2715,
      "rote": 2716,
      "Ġregard": 2717,
      "ĠPar": 2718,
      "ED": 2719,
      "aign": 2720,
      "Ġshows": 2721,
      "Ġmach": 2722,
      "://": 2723,
      "Ġnatural": 2724,
      "ek": 2725,
      "ĠPresident": 2726,
      "Ġinde": 2727,
      "ĠTH": 2728,
      "Ġwarm": 2729,
      "Ġcareer": 2730,
      "gle": 2731,
      "Ġphone": 2732,
      "Ġtrue": 2733,
      "cing": 2734,
      "Ġdate": 2735,
      "Ġround": 2736,
      "ming": 2737,
      "13": 2738,
      "Ġrelease": 2739,
      "Ġconcern": 2740,
      "Ġrisk": 2741,
      "Ġnational": 2742,
      "Ġyourself": 2743,
      "cember": 2744,
      "cial": 2745,
      "Ġregular": 2746,
      "anger": 2747,
      "ĠSw": 2748,
      "yr": 2749,
      "Ġbase": 2750,
      "Ġattend": 2751,
      "Ġdesigned": 2752,
      "Ġimpact": 2753,
      "Ġunique": 2754,
      "obile": 2755,
      "Ġinstead": 2756,
      "Ġled": 2757,
      "oura": 2758,
      "Ġcannot": 2759,
      "14": 2760,
      "Ġ40": 2761,
      "Ġdark": 2762,
      "Ġcontract": 2763,
      "Ġwood": 2764,
      "Ġagree": 2765,
      "Ġobs": 2766,
      "ding": 2767,
      "IT": 2768,
      "Ġchanges": 2769,
      "Ġdress": 2770,
      "Ġincrease": 2771,
      "Ġisn": 2772,
      "ĠArt": 2773,
      "Ġstruct": 2774,
      "lebr": 2775,
      "year": 2776,
      "Ġproperty": 2777,
      "ought": 2778,
      "apan": 2779,
      "ĠBu": 2780,
      "Ġvoice": 2781,
      "ceed": 2782,
      "ĠTra": 2783,
      "ĠHouse": 2784,
      "Ġord": 2785,
      "Ġfair": 2786,
      "Ġlay": 2787,
      "Ġincludes": 2788,
      "16": 2789,
      "face": 2790,
      "mit": 2791,
      "Ġneg": 2792,
      "Ġmass": 2793,
      "ray": 2794,
      "ĠCenter": 2795,
      "Ġupd": 2796,
      "Ġbear": 2797,
      "Ġsho": 2798,
      "Ġconsum": 2799,
      "Ġcontrib": 2800,
      "ands": 2801,
      "ests": 2802,
      "Ġcourt": 2803,
      "Ġwritten": 2804,
      "Ġtour": 2805,
      "Ġinn": 2806,
      "gu": 2807,
      "irth": 2808,
      "ĠBro": 2809,
      "Ġwat": 2810,
      "--": 2811,
      "Ġdom": 2812,
      "Ġstyle": 2813,
      "more": 2814,
      "ashing": 2815,
      "Ġmodel": 2816,
      "Ġusually": 2817,
      "cy": 2818,
      "urance": 2819,
      "ĠDecember": 2820,
      "Ġhear": 2821,
      "Ġfinancial": 2822,
      "aily": 2823,
      "Ġ2009": 2824,
      "Ġsend": 2825,
      "Ġgoal": 2826,
      "ĠSud": 2827,
      "cast": 2828,
      "Ġblue": 2829,
      "iles": 2830,
      "Ġresour": 2831,
      "Ġbrought": 2832,
      "Ġlived": 2833,
      "Ġgreen": 2834,
      "ground": 2835,
      "iple": 2836,
      "hib": 2837,
      "Ġwrong": 2838,
      "Ġill": 2839,
      "reed": 2840,
      "Ġteac": 2841,
      "ufact": 2842,
      "che": 2843,
      "ĠFirst": 2844,
      "Ġextra": 2845,
      "Ġfit": 2846,
      "uted": 2847,
      "Ġwoman": 2848,
      "Ġexpress": 2849,
      "Ġeducation": 2850,
      "Ġnorm": 2851,
      "ĠMon": 2852,
      "Ġanyone": 2853,
      "Ġturned": 2854,
      "itary": 2855,
      "ĠEnglish": 2856,
      "Ġwasn": 2857,
      "Ġbrother": 2858,
      "arget": 2859,
      "Ġcapt": 2860,
      "Ġattack": 2861,
      ".)": 2862,
      "ĠBritish": 2863,
      "Ġcast": 2864,
      "key": 2865,
      "IC": 2866,
      "Ġsometimes": 2867,
      "ĠRed": 2868,
      "Ġlear": 2869,
      "izing": 2870,
      "Ġprim": 2871,
      "ales": 2872,
      "rect": 2873,
      "ĠDay": 2874,
      "Ġhop": 2875,
      "Ġcontinued": 2876,
      "zy": 2877,
      "Ġintrodu": 2878,
      "Ġpurp": 2879,
      "Ġfloor": 2880,
      "Ġthemselves": 2881,
      "Ġwrote": 2882,
      "Ġtele": 2883,
      "mon": 2884,
      "22": 2885,
      "ded": 2886,
      "Ġtowards": 2887,
      "ĠAg": 2888,
      "lier": 2889,
      "Ġdepend": 2890,
      "icro": 2891,
      "Ġrecent": 2892,
      "itchen": 2893,
      "Ġleaders": 2894,
      "Ġ23": 2895,
      "Ġobject": 2896,
      "Ġpers": 2897,
      "Ġple": 2898,
      "Ġcomfort": 2899,
      "Ġvict": 2900,
      "Ġprint": 2901,
      "ĠMus": 2902,
      "sy": 2903,
      "kes": 2904,
      "ĠUs": 2905,
      "ondon": 2906,
      "Ġrace": 2907,
      "idered": 2908,
      "AC": 2909,
      "Ġpolitical": 2910,
      "200": 2911,
      "Ġcouple": 2912,
      "40": 2913,
      "pite": 2914,
      "iction": 2915,
      "ĠJapan": 2916,
      "Ġdecision": 2917,
      "Ġ2008": 2918,
      "atory": 2919,
      "ees": 2920,
      "ky": 2921,
      "Ġcross": 2922,
      "Ġhelped": 2923,
      "Ġpotential": 2924,
      "Ġhor": 2925,
      "ĠSim": 2926,
      "Ġbal": 2927,
      "Ġsecurity": 2928,
      "Ġviol": 2929,
      "airs": 2930,
      "Ġpractice": 2931,
      "Ġlo": 2932,
      "Ġexplore": 2933,
      "ocks": 2934,
      "Ġsystems": 2935,
      "Ġtast": 2936,
      "aker": 2937,
      "Ġboard": 2938,
      "istic": 2939,
      "Ġtreatment": 2940,
      "Ġlangu": 2941,
      "Ġx": 2942,
      "ĠâĢ¢": 2943,
      "Ġrout": 2944,
      "Ġitself": 2945,
      "Ġarticle": 2946,
      "Ġnetwork": 2947,
      "Ġbur": 2948,
      "ĠPat": 2949,
      "17": 2950,
      "ĠCour": 2951,
      "ĠColle": 2952,
      "Ġopportunity": 2953,
      "Ġskin": 2954,
      "Ġchoose": 2955,
      "Ġwait": 2956,
      "arter": 2957,
      "Ġseems": 2958,
      "Ġ2014": 2959,
      "Ġreading": 2960,
      "Ġful": 2961,
      "Ġfix": 2962,
      "Ġfollowed": 2963,
      "ruary": 2964,
      "Ġdefin": 2965,
      "Ġcampaign": 2966,
      "25": 2967,
      "uth": 2968,
      "Ġremember": 2969,
      "Ġinflu": 2970,
      "Ġreported": 2971,
      "Ġdrive": 2972,
      "off": 2973,
      "Ġscreen": 2974,
      "Ġadvent": 2975,
      "Ġsleep": 2976,
      "ological": 2977,
      "Ġrate": 2978,
      "ĠII": 2979,
      "ĠBob": 2980,
      "now": 2981,
      "adem": 2982,
      "Ġprior": 2983,
      "ule": 2984,
      "Ġcause": 2985,
      "Ġworth": 2986,
      "ĠBlack": 2987,
      "Ġoptions": 2988,
      "ĠGener": 2989,
      "Ġgrand": 2990,
      "Ġlives": 2991,
      "ĠSara": 2992,
      "ĠOf": 2993,
      "Ġsett": 2994,
      "Ġfunction": 2995,
      "Ġknowledge": 2996,
      "Ġreceive": 2997,
      "Ġsummer": 2998,
      "Ġsky": 2999,
      "Ġsales": 3000,
      "Ġfather": 3001,
      "Ġstick": 3002,
      "Ġadditional": 3003,
      "ĠOff": 3004,
      "ĠAng": 3005,
      "ĠLondon": 3006,
      "Ġroll": 3007,
      "inary": 3008,
      "ĠVal": 3009,
      "Ġconsidered": 3010,
      "Ġrights": 3011,
      "Ġinsp": 3012,
      "ĠSoc": 3013,
      "ĠInt": 3014,
      "ĠMost": 3015,
      "Ġmoved": 3016,
      "aug": 3017,
      "icles": 3018,
      "ĠPost": 3019,
      "ournal": 3020,
      "Ġmeeting": 3021,
      "ĠSer": 3022,
      "ha": 3023,
      "Ġveh": 3024,
      "ford": 3025,
      "Ġplayer": 3026,
      "Ġspot": 3027,
      "Ġcy": 3028,
      "irit": 3029,
      "ederal": 3030,
      "Ġfinally": 3031,
      "Ġgoes": 3032,
      "ĠAfric": 3033,
      "ĠMia": 3034,
      "Ġhtt": 3035,
      "Ġprivate": 3036,
      "Ġmodern": 3037,
      "Ġaffect": 3038,
      "Ġsense": 3039,
      "Ġvia": 3040,
      "Ġimmedi": 3041,
      "ĠFebruary": 3042,
      "Ġpan": 3043,
      "Ġlearning": 3044,
      "Ġdetails": 3045,
      "US": 3046,
      "reng": 3047,
      "Ġcelebr": 3048,
      "cil": 3049,
      "Ġjud": 3050,
      "aught": 3051,
      "Ġcam": 3052,
      "Ġinvolved": 3053,
      "Ġgrowth": 3054,
      "Ġplat": 3055,
      "ĠAdd": 3056,
      "ĠDis": 3057,
      "Ġshowed": 3058,
      "ocr": 3059,
      "Ġlat": 3060,
      "ĠSuddenly": 3061,
      "Ġclub": 3062,
      "Ġbag": 3063,
      "oom": 3064,
      "ĠTV": 3065,
      "rench": 3066,
      "board": 3067,
      "Ġdeg": 3068,
      "ĠEar": 3069,
      "ession": 3070,
      "Ġreached": 3071,
      "like": 3072,
      "Ġsoftware": 3073,
      "Ġmedical": 3074,
      "Ġcareful": 3075,
      "Ġpublished": 3076,
      "__": 3077,
      "Ġrev": 3078,
      "Ġgrad": 3079,
      "\".": 3080,
      "Ġut": 3081,
      "ospital": 3082,
      "Ġ28": 3083,
      "Ġclim": 3084,
      "Ġdrink": 3085,
      "Ġepisode": 3086,
      "Ġsepar": 3087,
      "Ġimm": 3088,
      "ĠDuring": 3089,
      "Ġterms": 3090,
      "hood": 3091,
      "wood": 3092,
      "kay": 3093,
      "Ġhappened": 3094,
      "Ġblood": 3095,
      "Ġdownload": 3096,
      "ĠSch": 3097,
      "Ġten": 3098,
      "Ġsaying": 3099,
      "Ġ196": 3100,
      "asons": 3101,
      "ĠSan": 3102,
      "iant": 3103,
      "orge": 3104,
      "light": 3105,
      "Ġwrite": 3106,
      "uel": 3107,
      "Ġamazing": 3108,
      "ĠRuss": 3109,
      "Ġdecl": 3110,
      "ett": 3111,
      "ken": 3112,
      "Ġstru": 3113,
      "Ġpolice": 3114,
      "ĠAre": 3115,
      "str": 3116,
      "Ġensure": 3117,
      "ĠInc": 3118,
      "Ġreach": 3119,
      "RE": 3120,
      "ysis": 3121,
      "Ġsens": 3122,
      "Ġleading": 3123,
      "Ġrecently": 3124,
      "Ġexact": 3125,
      "Ġpiece": 3126,
      "Ġson": 3127,
      "Ġability": 3128,
      "amb": 3129,
      "ĠAssoci": 3130,
      "Ġexec": 3131,
      "Ġ2015": 3132,
      "ĠAir": 3133,
      "Ġ000": 3134,
      "Ġpolicy": 3135,
      "Ġlower": 3136,
      "Ġ27": 3137,
      "ĠHealth": 3138,
      "ĠOther": 3139,
      "Ġinternational": 3140,
      "Ġlab": 3141,
      "ID": 3142,
      "ĠLuc": 3143,
      "aughter": 3144,
      "dom": 3145,
      "Ġtruck": 3146,
      "ĠEven": 3147,
      "Ġhugged": 3148,
      "itte": 3149,
      "Ġfinished": 3150,
      "illing": 3151,
      "ux": 3152,
      "ĠWell": 3153,
      "Ġetc": 3154,
      "ĠUp": 3155,
      "ying": 3156,
      "Ġplant": 3157,
      "imum": 3158,
      "oogle": 3159,
      "Ġcentury": 3160,
      "Ġcases": 3161,
      "earch": 3162,
      "Ġmount": 3163,
      "Ġpicture": 3164,
      "Ġfeet": 3165,
      "Ġactivities": 3166,
      "ĠWilliam": 3167,
      "Ġtarget": 3168,
      "sequ": 3169,
      "Ġhuge": 3170,
      "ĠAlthough": 3171,
      "Ġbi": 3172,
      "Ġweight": 3173,
      "Ġspeed": 3174,
      "Ġcurrently": 3175,
      "Ġcas": 3176,
      "Ġapplication": 3177,
      "estern": 3178,
      "Ġclick": 3179,
      "Ġalthough": 3180,
      "Ġitems": 3181,
      "Ġgun": 3182,
      "Ġstar": 3183,
      "Ġinvestig": 3184,
      "Ġur": 3185,
      "Ġwalking": 3186,
      "erve": 3187,
      "Ġfeed": 3188,
      "Ġpred": 3189,
      "Ġhol": 3190,
      "ald": 3191,
      "imately": 3192,
      "Ġwel": 3193,
      "Ġusers": 3194,
      "Ġlocated": 3195,
      "Ġter": 3196,
      "Ġmanufact": 3197,
      "ault": 3198,
      "Ġattention": 3199,
      "Ġgives": 3200,
      "ĠSund": 3201,
      "Ġwants": 3202,
      "Ġmovie": 3203,
      "Ġship": 3204,
      "Ġdise": 3205,
      "ĠStreet": 3206,
      "Ġgroups": 3207,
      "Ġrain": 3208,
      "ĠCalif": 3209,
      "ĠCons": 3210,
      "uses": 3211,
      "Ġconditions": 3212,
      "Ġ26": 3213,
      "ael": 3214,
      "ci": 3215,
      "Ġcountries": 3216,
      "Ġstories": 3217,
      "zz": 3218,
      "Ġkitchen": 3219,
      "ville": 3220,
      "unt": 3221,
      "ica": 3222,
      "Ġemer": 3223,
      "king": 3224,
      "Ġbroad": 3225,
      "Ġlegal": 3226,
      "ĠDavid": 3227,
      "Ġhurt": 3228,
      "atives": 3229,
      "Ġcold": 3230,
      "Ġlevels": 3231,
      "Ġautom": 3232,
      "Ġapproach": 3233,
      "Ġparts": 3234,
      "Ġpresident": 3235,
      "ĠUK": 3236,
      "Ġneigh": 3237,
      "Ġstudent": 3238,
      "Ġchance": 3239,
      "Ġwalked": 3240,
      "Ġsweet": 3241,
      "ĠAc": 3242,
      "Ġ2016": 3243,
      "ĠDan": 3244,
      "Ġones": 3245,
      "Ġcomment": 3246,
      "ĠInternational": 3247,
      "Ġexcept": 3248,
      "What": 3249,
      "Ġmention": 3250,
      "Ġdream": 3251,
      "Ġarch": 3252,
      "Ġaverage": 3253,
      "Ġspent": 3254,
      "Ġcredit": 3255,
      "Ġskills": 3256,
      "Ġreve": 3257,
      "onse": 3258,
      "Ġrelated": 3259,
      "Ġtrust": 3260,
      "Ġcarry": 3261,
      "Yes": 3262,
      "ĠAccording": 3263,
      "Ġmyself": 3264,
      "ĠSen": 3265,
      "Ġeasily": 3266,
      "Ġyes": 3267,
      "Ġalone": 3268,
      "Ġencoura": 3269,
      "Ġpositive": 3270,
      "Ġstreng": 3271,
      "based": 3272,
      "Ġsaf": 3273,
      "ĠDirect": 3274,
      "Ġsus": 3275,
      "Ġprograms": 3276,
      "Ġlif": 3277,
      "Ġloud": 3278,
      "Ġ2007": 3279,
      "su": 3280,
      "Ġbud": 3281,
      "Ġpath": 3282,
      "Ġbaby": 3283,
      "ĠFriday": 3284,
      "Ġfarm": 3285,
      "Ġcup": 3286,
      "Ġstandard": 3287,
      "ĠAut": 3288,
      "Ġpatients": 3289,
      "ĠPaul": 3290,
      "Ġcomputer": 3291,
      "Ġ>": 3292,
      "Ġchoice": 3293,
      "Ġshall": 3294,
      "alt": 3295,
      "Ġfresh": 3296,
      "Ġdeveloped": 3297,
      "ĠCr": 3298,
      "fficient": 3299,
      "ĠOb": 3300,
      "olly": 3301,
      "Ġbow": 3302,
      "ĠMany": 3303,
      "Ġ194": 3304,
      "Ġprevious": 3305,
      "21": 3306,
      "lex": 3307,
      "Ġbank": 3308,
      "Ġgiving": 3309,
      "iment": 3310,
      "St": 3311,
      "Ġprevent": 3312,
      "Ġrequest": 3313,
      "vision": 3314,
      "Ġearn": 3315,
      "ivil": 3316,
      "Ġstage": 3317,
      "Ġplans": 3318,
      "Ġgold": 3319,
      "haps": 3320,
      "anch": 3321,
      "Ġconduct": 3322,
      "mercial": 3323,
      "Ġdrug": 3324,
      "Ġinteresting": 3325,
      "Ġideas": 3326,
      "Ġgets": 3327,
      "iring": 3328,
      "ĠWhy": 3329,
      "inner": 3330,
      "Ġsuccessful": 3331,
      "Ġdead": 3332,
      "Ġbirth": 3333,
      "Ġcenter": 3334,
      "ension": 3335,
      "enty": 3336,
      "Ġpen": 3337,
      "utive": 3338,
      "Ġoffe": 3339,
      "ĠGet": 3340,
      "bur": 3341,
      "ĠSatur": 3342,
      "Ġanswer": 3343,
      "Ġsand": 3344,
      "aly": 3345,
      "Ġnote": 3346,
      "gar": 3347,
      "Ġdisplay": 3348,
      "Ġplatform": 3349,
      "Ġnod": 3350,
      "Ġnecessary": 3351,
      "ornia": 3352,
      "ĠLa": 3353,
      "Ġlisten": 3354,
      "Ġnature": 3355,
      "ĠAlso": 3356,
      "ament": 3357,
      "Ġnorth": 3358,
      "ĠDepartment": 3359,
      "Ġstopped": 3360,
      "Ġcustomer": 3361,
      "Ġpicked": 3362,
      "Ġvariety": 3363,
      "Ġhistor": 3364,
      "ĠMor": 3365,
      "ĠJames": 3366,
      "acing": 3367,
      "Ġconsist": 3368,
      "Ġinterview": 3369,
      "Ġspeak": 3370,
      "itution": 3371,
      "Ġwish": 3372,
      "ĠOver": 3373,
      "aint": 3374,
      "oul": 3375,
      "ĠÃ¢": 3376,
      "Ġattract": 3377,
      "Ġadminist": 3378,
      "Ġcra": 3379,
      "ĠCO": 3380,
      "ashington": 3381,
      "ĠEast": 3382,
      "ĠMary": 3383,
      "No": 3384,
      "hold": 3385,
      "ĠFrench": 3386,
      "âĦ": 3387,
      "Ġsave": 3388,
      "Ġforest": 3389,
      "ĠCoun": 3390,
      "Ġprojects": 3391,
      "ĠGreat": 3392,
      "Ġeight": 3393,
      "action": 3394,
      "ipment": 3395,
      "Ġbright": 3396,
      "lin": 3397,
      "Ġsection": 3398,
      "Ġaw": 3399,
      "Ġtitle": 3400,
      "ivity": 3401,
      "sec": 3402,
      "ĠMet": 3403,
      "kend": 3404,
      "Ġexpected": 3405,
      "itation": 3406,
      "iers": 3407,
      "Ġlatest": 3408,
      "Ġfinish": 3409,
      "Ġcosts": 3410,
      "Ġpet": 3411,
      "ength": 3412,
      "ĠTod": 3413,
      "ida": 3414,
      "ĠCalifornia": 3415,
      "Ġpromot": 3416,
      "roup": 3417,
      "idents": 3418,
      "Ġintegr": 3419,
      "Ġimage": 3420,
      "Ġgone": 3421,
      "ned": 3422,
      "Ġruns": 3423,
      "ĠBus": 3424,
      "Ġheavy": 3425,
      "isions": 3426,
      "Ġlocation": 3427,
      "ĠSar": 3428,
      "iber": 3429,
      "âĦ¢": 3430,
      "OT": 3431,
      "rupt": 3432,
      "ellow": 3433,
      "rog": 3434,
      "aches": 3435,
      "ctions": 3436,
      "unk": 3437,
      "ĠWashington": 3438,
      "Ġwife": 3439,
      "Ġ+": 3440,
      "Ġannounced": 3441,
      "iff": 3442,
      "Ġallows": 3443,
      "inated": 3444,
      "iqu": 3445,
      "Ġeffective": 3446,
      "Ġconv": 3447,
      "Ġapply": 3448,
      "Ġdating": 3449,
      "Ġmarketing": 3450,
      "Ġindepend": 3451,
      "ications": 3452,
      "Ġlanguage": 3453,
      "ĠRead": 3454,
      "ĠSaturday": 3455,
      "Ġimpress": 3456,
      "Ġsource": 3457,
      "band": 3458,
      "Ġtur": 3459,
      "Ġeye": 3460,
      "mission": 3461,
      "ĠSince": 3462,
      "lection": 3463,
      "ĠSunday": 3464,
      "Ġstates": 3465,
      "Ġscore": 3466,
      "Ġhous": 3467,
      "ĠNet": 3468,
      "Ġlaug": 3469,
      "Ġcompletely": 3470,
      "ĠOut": 3471,
      "cription": 3472,
      "ĠDem": 3473,
      "ĠFree": 3474,
      "ĠCourt": 3475,
      "Ġlaughed": 3476,
      "Ġstarting": 3477,
      "ittee": 3478,
      "ĠBest": 3479,
      "Ġdry": 3480,
      "ĠNews": 3481,
      "ancy": 3482,
      "Ġenter": 3483,
      "ĠJoe": 3484,
      "'d": 3485,
      "aries": 3486,
      "Ġnoise": 3487,
      "Ġglobal": 3488,
      "Ġthinking": 3489,
      "arily": 3490,
      "Ġdescribed": 3491,
      "Ġplaces": 3492,
      "Ġforce": 3493,
      "Ġsituation": 3494,
      "wise": 3495,
      "Ġimag": 3496,
      "Ġmilitary": 3497,
      "Ġdocument": 3498,
      "yond": 3499,
      "Ġ29": 3500,
      "ĠLaw": 3501,
      "ĠChina": 3502,
      "ĠCommun": 3503,
      "oses": 3504,
      "set": 3505,
      "vey": 3506,
      "Ġaward": 3507,
      "Ġsafety": 3508,
      "Ġ2017": 3509,
      "Ġvot": 3510,
      "Ġwonderful": 3511,
      "Ġshoot": 3512,
      "Ġthreat": 3513,
      "ĠFace": 3514,
      "Ġbenefits": 3515,
      "ari": 3516,
      "ĠWed": 3517,
      "Ġallowed": 3518,
      "Ġmoving": 3519,
      "Ġsche": 3520,
      "AM": 3521,
      "just": 3522,
      "Ġresponse": 3523,
      "fl": 3524,
      "Ġqual": 3525,
      "iling": 3526,
      "Ġlimited": 3527,
      "Ġclients": 3528,
      "itter": 3529,
      "OS": 3530,
      "Ġseven": 3531,
      "Ġtrip": 3532,
      "ibly": 3533,
      "mp": 3534,
      "itute": 3535,
      "ipped": 3536,
      "Ġcatch": 3537,
      "field": 3538,
      "Ġjoin": 3539,
      "Ġclot": 3540,
      "ĠIr": 3541,
      "Ġoccur": 3542,
      "ĠCollege": 3543,
      "Ġsouth": 3544,
      "Ġangry": 3545,
      "icate": 3546,
      "Ġhighly": 3547,
      "enge": 3548,
      "hest": 3549,
      "ĠMag": 3550,
      "Ġresources": 3551,
      "Ġprogress": 3552,
      "erved": 3553,
      "Ġextreme": 3554,
      "Ġ60": 3555,
      "Ġhappen": 3556,
      "ruit": 3557,
      "ams": 3558,
      "Ġfem": 3559,
      "uk": 3560,
      "In": 3561,
      "80": 3562,
      "Ġlack": 3563,
      "Ġtypes": 3564,
      "ears": 3565,
      "ĠIndia": 3566,
      "Ġsites": 3567,
      "Ġregion": 3568,
      "Ġdaily": 3569,
      "olf": 3570,
      "Ġprot": 3571,
      "Ġshot": 3572,
      "Ġdirectly": 3573,
      "Ġfine": 3574,
      "ING": 3575,
      "Ġbehav": 3576,
      "Ġvac": 3577,
      "Ġoption": 3578,
      "Ġice": 3579,
      "ĠMond": 3580,
      "ĠPlay": 3581,
      "ography": 3582,
      "Ġdigital": 3583,
      "Ġthanked": 3584,
      "Ġappl": 3585,
      "put": 3586,
      "elling": 3587,
      "aled": 3588,
      "Ġaccom": 3589,
      "Ġmultiple": 3590,
      "Ġcars": 3591,
      "ampions": 3592,
      "Ġstuff": 3593,
      "Ġnation": 3594,
      "Ġbeginning": 3595,
      "Ġcomplex": 3596,
      "Ġsubs": 3597,
      "xic": 3598,
      "Ġuser": 3599,
      "Ġsubst": 3600,
      "Ġdetail": 3601,
      "Ġtrain": 3602,
      "Ġcollection": 3603,
      "Ġforg": 3604,
      "pre": 3605,
      "ilies": 3606,
      "Ġevidence": 3607,
      "ĠRich": 3608,
      "Ġeffects": 3609,
      "Ġpurchase": 3610,
      "ĠWhite": 3611,
      "Ġhour": 3612,
      "ĠJim": 3613,
      "Ġearlier": 3614,
      "ĠAny": 3615,
      "Ġorganization": 3616,
      "Ġconcept": 3617,
      "Ġexcell": 3618,
      "Ġprem": 3619,
      "Ġsurv": 3620,
      "ovel": 3621,
      "Ġsmile": 3622,
      "ĠRom": 3623,
      "osition": 3624,
      "Ġparticularly": 3625,
      "Ġpictures": 3626,
      "Ġver": 3627,
      "cause": 3628,
      "aling": 3629,
      "mas": 3630,
      "ĠPal": 3631,
      "Ġproviding": 3632,
      "ences": 3633,
      "Ġchalleng": 3634,
      "rast": 3635,
      "nded": 3636,
      "Ġesc": 3637,
      "oming": 3638,
      "Ġvill": 3639,
      "Ġsmart": 3640,
      "ords": 3641,
      "ĠGeneral": 3642,
      "ato": 3643,
      "Ġdistrib": 3644,
      "ĠGoogle": 3645,
      "Ġphysical": 3646,
      "Ġgrowing": 3647,
      "Ġhelps": 3648,
      "Ġ2006": 3649,
      "Ġeconomic": 3650,
      "OU": 3651,
      "Ġtrou": 3652,
      "Åĵ": 3653,
      "ube": 3654,
      "mitted": 3655,
      "Ġextend": 3656,
      "Ġtick": 3657,
      "Ġnearly": 3658,
      "sych": 3659,
      "Ġrelig": 3660,
      "ĠIndian": 3661,
      "Ġtools": 3662,
      "This": 3663,
      "BC": 3664,
      "asc": 3665,
      "Ġadult": 3666,
      "izes": 3667,
      "Ġdisapp": 3668,
      "Ġdisp": 3669,
      "Ġdirector": 3670,
      "ils": 3671,
      "Ġgrab": 3672,
      "ipe": 3673,
      "ĠTrans": 3674,
      "ĠâĢ¦": 3675,
      "Ġserved": 3676,
      "oyal": 3677,
      "ĠWind": 3678,
      "ĠRec": 3679,
      "Ġcondition": 3680,
      "het": 3681,
      "Ġchurch": 3682,
      "Ġfile": 3683,
      "ĠGovern": 3684,
      "ĠMichael": 3685,
      "orrow": 3686,
      "He": 3687,
      "Ġdamage": 3688,
      "pa": 3689,
      "ĠEngland": 3690,
      "omen": 3691,
      "EC": 3692,
      "Ġpieces": 3693,
      "ĠBel": 3694,
      "Ġrestaur": 3695,
      "Ġequipment": 3696,
      "rences": 3697,
      "Ġhealthy": 3698,
      "ĠRober": 3699,
      "Ġconvers": 3700,
      "wor": 3701,
      "Ġboat": 3702,
      "Ġblock": 3703,
      "Ġpressure": 3704,
      "Ġincreased": 3705,
      "Ġeffort": 3706,
      "ĠAustralia": 3707,
      "99": 3708,
      "24": 3709,
      "Ġcharacters": 3710,
      "Ġnoticed": 3711,
      "Ġult": 3712,
      "Ġdemand": 3713,
      "Ġflowers": 3714,
      "Ġmiles": 3715,
      "Ġindividuals": 3716,
      "Ġacqu": 3717,
      "Ġcollege": 3718,
      "Ġgoals": 3719,
      "pri": 3720,
      "Ġcloser": 3721,
      "Ġweekend": 3722,
      "Ġfrequ": 3723,
      "Ġgas": 3724,
      "Ġarm": 3725,
      "Ġthank": 3726,
      "ĠPort": 3727,
      "Ġwindow": 3728,
      "Ġconstruction": 3729,
      "Ġemb": 3730,
      "ĠÂ£": 3731,
      "Ġpartners": 3732,
      "ĠRepublic": 3733,
      "Ġwhose": 3734,
      "Ġmiddle": 3735,
      "ĠJes": 3736,
      "Ġmis": 3737,
      "Ġchanged": 3738,
      "Ġrespond": 3739,
      "Ġprec": 3740,
      "Ġanalysis": 3741,
      "Ġtow": 3742,
      "ĠDad": 3743,
      "Ġpaid": 3744,
      "Ġ2018": 3745,
      "ew": 3746,
      "Ġpoor": 3747,
      "That": 3748,
      "ipping": 3749,
      "Ġinsurance": 3750,
      "Ġoffered": 3751,
      "Ġaltern": 3752,
      "ares": 3753,
      "Ġfat": 3754,
      "Ġtraditional": 3755,
      "ĠGreen": 3756,
      "Ġmessage": 3757,
      "Ġmachine": 3758,
      "ĠAnt": 3759,
      "chan": 3760,
      "Ġteams": 3761,
      "Ġexerc": 3762,
      "itely": 3763,
      "Ġded": 3764,
      "Ġcommand": 3765,
      "Ġlic": 3766,
      "Ġproduced": 3767,
      "Ġflew": 3768,
      "Ġachieve": 3769,
      "23": 3770,
      "Ġbutter": 3771,
      "ĠGrand": 3772,
      "iders": 3773,
      "Ġsort": 3774,
      "ĠGood": 3775,
      "ĠMac": 3776,
      "ĠProf": 3777,
      "ĠMonday": 3778,
      "iable": 3779,
      "lim": 3780,
      "ĠThom": 3781,
      "ĠRiver": 3782,
      "iance": 3783,
      "rs": 3784,
      "Ġspecies": 3785,
      "osing": 3786,
      "roy": 3787,
      "Ġcorrect": 3788,
      "Ġfirm": 3789,
      "ĠBook": 3790,
      "ĠPri": 3791,
      "Ġnumbers": 3792,
      "ĠEuropean": 3793,
      "ĠTex": 3794,
      "icious": 3795,
      "Ġtalking": 3796,
      "Ġdied": 3797,
      "Ġsen": 3798,
      "Ġaware": 3799,
      "ban": 3800,
      "Ġadvant": 3801,
      "Ġorigin": 3802,
      "Ġpeace": 3803,
      "Ġsongs": 3804,
      "ously": 3805,
      "Ġstorm": 3806,
      "Ġtemper": 3807,
      "Ġactivity": 3808,
      "illy": 3809,
      "Ġmobile": 3810,
      "lands": 3811,
      "Ġdanger": 3812,
      "Ġremain": 3813,
      "....": 3814,
      "Ġworry": 3815,
      "ĠGold": 3816,
      "ET": 3817,
      "Ġhelping": 3818,
      "Ġmaterials": 3819,
      "Ġbrave": 3820,
      "omb": 3821,
      "Ġwild": 3822,
      "ĠOp": 3823,
      "Ġreturned": 3824,
      "ĠMid": 3825,
      "ĠHall": 3826,
      "ĠService": 3827,
      "Ġmaybe": 3828,
      "isl": 3829,
      "wide": 3830,
      "Ġsolution": 3831,
      "ĠSuper": 3832,
      "venue": 3833,
      "ĠHome": 3834,
      "ĠGroup": 3835,
      "amm": 3836,
      "Ġcommercial": 3837,
      "ĠRem": 3838,
      "Ġdevice": 3839,
      "aith": 3840,
      "ulations": 3841,
      "Ġculture": 3842,
      "Ġinterested": 3843,
      "ĠCle": 3844,
      "Ġfully": 3845,
      "ĠTHE": 3846,
      "uate": 3847,
      "ucky": 3848,
      "ĠCanada": 3849,
      "mm": 3850,
      "Ġleaves": 3851,
      "Ġoverall": 3852,
      "Ġsnow": 3853,
      "Ġshared": 3854,
      "ĠRoad": 3855,
      "Ġwear": 3856,
      "ago": 3857,
      "error": 3858,
      "Ġwatched": 3859,
      "sp": 3860,
      "ĠBra": 3861,
      "Ġincreasing": 3862,
      "down": 3863,
      "Ġimmediately": 3864,
      "Ġdemon": 3865,
      "ounds": 3866,
      "Ġcode": 3867,
      "Ġble": 3868,
      "Ġletter": 3869,
      "Ġsuit": 3870,
      "itar": 3871,
      "Ġdaughter": 3872,
      "ĠDist": 3873,
      "Ġstrugg": 3874,
      "Ġpassed": 3875,
      "useum": 3876,
      "Ġtrees": 3877,
      "ummy": 3878,
      "Ġarrived": 3879,
      "Ġimplement": 3880,
      "antly": 3881,
      "ocol": 3882,
      "LL": 3883,
      "change": 3884,
      "ĠAN": 3885,
      "nds": 3886,
      "ĠAnn": 3887,
      "Ġglass": 3888,
      "Ġinform": 3889,
      "Ġstation": 3890,
      "Ġspirit": 3891,
      "Ġ195": 3892,
      "Ġschools": 3893,
      "Ġspread": 3894,
      "Ġplanning": 3895,
      "Ġfans": 3896,
      "Ġemot": 3897,
      "ĠFacebook": 3898,
      "Ġlaugh": 3899,
      "ĠCong": 3900,
      "ae": 3901,
      "Ġtrade": 3902,
      "Ġstraight": 3903,
      "ipp": 3904,
      "name": 3905,
      "Ġliter": 3906,
      "oly": 3907,
      "Ġden": 3908,
      "Ġbath": 3909,
      "Ġlines": 3910,
      "Ġborn": 3911,
      "Ġcapital": 3912,
      "Ġcreating": 3913,
      "Ġdisease": 3914,
      "ĠDel": 3915,
      "ourney": 3916,
      "Ġpopulation": 3917,
      "Ġowner": 3918,
      "undred": 3919,
      "Ġpow": 3920,
      "Ġlargest": 3921,
      "Ġcru": 3922,
      "ĠBill": 3923,
      "Ġkm": 3924,
      "mark": 3925,
      "Ġdeliver": 3926,
      "Ġnovel": 3927,
      "Ġserious": 3928,
      "Ġpurpose": 3929,
      "ĠGerman": 3930,
      "EO": 3931,
      "Ġestablished": 3932,
      "ĠLucy": 3933,
      "Ġfamilies": 3934,
      "inger": 3935,
      "Ġpu": 3936,
      "erry": 3937,
      "Ġemployees": 3938,
      "vis": 3939,
      "body": 3940,
      "Ġload": 3941,
      "Ġcertainly": 3942,
      "ĠWhe": 3943,
      "Ġsecret": 3944,
      "men": 3945,
      "Ġonto": 3946,
      "hips": 3947,
      "ulated": 3948,
      "ĠSee": 3949,
      "Ġnormal": 3950,
      "Ġpowerful": 3951,
      "Ġshop": 3952,
      "Let": 3953,
      "ĠToday": 3954,
      "ĠAssociation": 3955,
      "ĠChurch": 3956,
      "Ġspl": 3957,
      "ĠTwo": 3958,
      "ĠInter": 3959,
      "oe": 3960,
      "Ġnut": 3961,
      "Ġpattern": 3962,
      "Ġstock": 3963,
      "ĠGeorge": 3964,
      "Ġappoint": 3965,
      "Ġthous": 3966,
      "Ġpatient": 3967,
      "Ġprinc": 3968,
      "ĠBecause": 3969,
      "Ġreb": 3970,
      "Ġregist": 3971,
      "Ġbudget": 3972,
      "Ġsurround": 3973,
      "Ġshown": 3974,
      "Ġbeyond": 3975,
      "rey": 3976,
      "Ġdifference": 3977,
      "Ġcompleted": 3978,
      "Ġexactly": 3979,
      "ĠMod": 3980,
      "ĠSl": 3981,
      "ĠCompany": 3982,
      "Ġaim": 3983,
      "Ġphotos": 3984,
      "Ġagreed": 3985,
      "vant": 3986,
      "ibr": 3987,
      "ooth": 3988,
      "rief": 3989,
      "Ġuses": 3990,
      "Ġopening": 3991,
      "Ġavoid": 3992,
      "Ġund": 3993,
      "Ġeventually": 3994,
      "rows": 3995,
      "ĠTechn": 3996,
      "Ġclosed": 3997,
      "ivery": 3998,
      "ĠBusiness": 3999,
      "Ġexpert": 4000,
      "ĠCouncil": 4001,
      "rial": 4002,
      "Ġstress": 4003,
      "Ġhttp": 4004,
      "Ġorganiz": 4005,
      "Ġcert": 4006,
      "ĠTheir": 4007,
      "ĠOh": 4008,
      "ĠEach": 4009,
      "ĠMart": 4010,
      "Ġenjoyed": 4011,
      "Ġreflect": 4012,
      "ĠSub": 4013,
      "Ġswim": 4014,
      "iation": 4015,
      "Ġfilled": 4016,
      "Ġinnov": 4017,
      "Ġserve": 4018,
      "Ġquarter": 4019,
      "Ġfriendly": 4020,
      "Ġcandid": 4021,
      "Ġmeaning": 4022,
      "?âĢĿ": 4023,
      "ĠHot": 4024,
      "Ġlength": 4025,
      "Ġscient": 4026,
      "Ġreports": 4027,
      "ustr": 4028,
      "Ġunderstanding": 4029,
      "Ġgenerally": 4030,
      "Ġactive": 4031,
      "rie": 4032,
      "house": 4033,
      "arc": 4034,
      "Ġcharge": 4035,
      "arant": 4036,
      "Ġplaced": 4037,
      "ashion": 4038,
      "Ġsea": 4039,
      "ston": 4040,
      "Ġopin": 4041,
      "ĠFlor": 4042,
      "vest": 4043,
      "asure": 4044,
      "olute": 4045,
      "olic": 4046,
      "etic": 4047,
      "Ġmeasure": 4048,
      "Ġhospital": 4049,
      "ĠWeb": 4050,
      "Ġwouldn": 4051,
      "itiz": 4052,
      "craft": 4053,
      "rael": 4054,
      "ĠMad": 4055,
      "Ġbusinesses": 4056,
      "nown": 4057,
      "igned": 4058,
      "Ġheat": 4059,
      "ushed": 4060,
      "ĠChristian": 4061,
      "Ġbillion": 4062,
      "ategy": 4063,
      "ĠSpec": 4064,
      "Ġassociated": 4065,
      "order": 4066,
      "Ġimages": 4067,
      "Ġtransfer": 4068,
      "www": 4069,
      "ĠRob": 4070,
      "Ġsupply": 4071,
      "ĠLike": 4072,
      "Ġdoub": 4073,
      "ĠTues": 4074,
      "Ġrules": 4075,
      "Ġsurface": 4076,
      "Ġmax": 4077,
      "ĠThurs": 4078,
      "Ġappeared": 4079,
      "ĠIN": 4080,
      "Ġwav": 4081,
      "70": 4082,
      "ĠAngel": 4083,
      "Ġresponsible": 4084,
      "outhern": 4085,
      "Ġconsult": 4086,
      "rag": 4087,
      "âĢĿ.": 4088,
      "Ġcolors": 4089,
      "bon": 4090,
      "Ġ2005": 4091,
      "Ġahead": 4092,
      "ĠTexas": 4093,
      "Ġassess": 4094,
      "ties": 4095,
      "ĠDiv": 4096,
      "Ġdoctor": 4097,
      "agn": 4098,
      "force": 4099,
      "place": 4100,
      "Ġmist": 4101,
      "Ġexcellent": 4102,
      "ĠSur": 4103,
      "Ġgar": 4104,
      "Ġadvice": 4105,
      "ĠSk": 4106,
      "Ġsale": 4107,
      "Ġappropri": 4108,
      "ĠBig": 4109,
      "Ġbottom": 4110,
      "AP": 4111,
      "ĠSystem": 4112,
      "Ġbreat": 4113,
      "ĠEv": 4114,
      "ĠYes": 4115,
      "Ġscience": 4116,
      "Ġscene": 4117,
      "Ġhighest": 4118,
      "ila": 4119,
      "reci": 4120,
      "Ġcake": 4121,
      "):": 4122,
      "ĠPhil": 4123,
      "Ġgift": 4124,
      "ĠSarah": 4125,
      "Ġprices": 4126,
      "Ġstrateg": 4127,
      "Ġoccas": 4128,
      "ightly": 4129,
      "Ġmeant": 4130,
      "atever": 4131,
      "duc": 4132,
      "ram": 4133,
      "Ġcaused": 4134,
      "Ġcloud": 4135,
      "Ġowners": 4136,
      "Ġfederal": 4137,
      "Ġtransport": 4138,
      "Ġshiny": 4139,
      "ĠWork": 4140,
      "azine": 4141,
      "oves": 4142,
      "35": 4143,
      "atively": 4144,
      "ĠHel": 4145,
      "ĠMem": 4146,
      "Ġherself": 4147,
      "ĠPet": 4148,
      "orage": 4149,
      "Ġbattle": 4150,
      "ĠLast": 4151,
      "rian": 4152,
      "Ġcateg": 4153,
      "Ġstructure": 4154,
      "Ġstreet": 4155,
      "Ġbeg": 4156,
      "Ġdinner": 4157,
      "umn": 4158,
      "Ġrealized": 4159,
      "ios": 4160,
      "ION": 4161,
      "ado": 4162,
      "icip": 4163,
      "Ġopportunities": 4164,
      "Ġhundred": 4165,
      "itect": 4166,
      "Ġpaint": 4167,
      "Ġanaly": 4168,
      "eds": 4169,
      "Ġstatement": 4170,
      "Ġadvert": 4171,
      "Ġstudies": 4172,
      "Ġarr": 4173,
      "ĠiP": 4174,
      "Ġbasis": 4175,
      "Ġhus": 4176,
      "ĠUnder": 4177,
      "ffee": 4178,
      "Ġcompared": 4179,
      "Ġgreater": 4180,
      "Ġadventure": 4181,
      "ĠWednes": 4182,
      "Ġbirds": 4183,
      "ĠRet": 4184,
      "Ġhur": 4185,
      "hy": 4186,
      "ĠAv": 4187,
      "Ġ31": 4188,
      "Ġing": 4189,
      "Ġproduce": 4190,
      "ronic": 4191,
      "Ġjourney": 4192,
      "Ġokay": 4193,
      "ĠAlex": 4194,
      "asy": 4195,
      "Ġbroken": 4196,
      "Ġmovement": 4197,
      "Ġgrass": 4198,
      "ĠChristmas": 4199,
      "Ġaspect": 4200,
      "ĠTuesday": 4201,
      "Ġcontain": 4202,
      "Ġfigure": 4203,
      "ĠThursday": 4204,
      "ĠLou": 4205,
      "ĠSmith": 4206,
      "Ġbill": 4207,
      "ĠFound": 4208,
      "Ġdouble": 4209,
      "ĠJesus": 4210,
      "Ġefforts": 4211,
      "Ġenh": 4212,
      "ĠServices": 4213,
      "Ġkick": 4214,
      "ĠSun": 4215,
      "Ġannual": 4216,
      "using": 4217,
      "Ġstrength": 4218,
      "ij": 4219,
      "ula": 4220,
      "ĠBrown": 4221,
      "Ġexpand": 4222,
      "Ġcream": 4223,
      "Ġride": 4224,
      "Ġreviews": 4225,
      "ĠAnother": 4226,
      "Ġbenefit": 4227,
      "ĠAM": 4228,
      "Ġdegree": 4229,
      "Ġinvestment": 4230,
      "Ġsurprise": 4231,
      "ĠProgram": 4232,
      "Ġlarger": 4233,
      "istics": 4234,
      "pm": 4235,
      "Ġrent": 4236,
      "ĠIS": 4237,
      "ĠPeople": 4238,
      "Ġreasons": 4239,
      "Ġrequirements": 4240,
      "itude": 4241,
      "bl": 4242,
      "ĠCam": 4243,
      "ĠSpr": 4244,
      "istry": 4245,
      "ĠIsrael": 4246,
      "oms": 4247,
      "ression": 4248,
      "Ġtom": 4249,
      "za": 4250,
      "ĠJane": 4251,
      "ĠDevelop": 4252,
      "Ġreplace": 4253,
      "Ġsust": 4254,
      "Ġnotice": 4255,
      "ĠSupp": 4256,
      "Ġweather": 4257,
      "Ġsolutions": 4258,
      "ocked": 4259,
      "Ġsees": 4260,
      "Ġseemed": 4261,
      "ancing": 4262,
      "Ġreduce": 4263,
      "ĠResearch": 4264,
      "Ġbeach": 4265,
      "Ġstated": 4266,
      "ĠThank": 4267,
      "Ġcovered": 4268,
      "ss": 4269,
      "Ġforces": 4270,
      "Ġscen": 4271,
      "ĠMommy": 4272,
      "Ġshout": 4273,
      "Ġglad": 4274,
      "sey": 4275,
      "26": 4276,
      "Ġdefinitely": 4277,
      "Ġapplications": 4278,
      "ĠBay": 4279,
      "gal": 4280,
      "AD": 4281,
      "Ġrob": 4282,
      "Ġrates": 4283,
      "Ġanymore": 4284,
      "90": 4285,
      "Ġvehicle": 4286,
      "Ġchallenge": 4287,
      "Ġproced": 4288,
      "ĠSol": 4289,
      "ĠMiss": 4290,
      "ĠWednesday": 4291,
      "ĠClub": 4292,
      "Ġanti": 4293,
      "Ġwed": 4294,
      "Ġ80": 4295,
      "Ġcorpor": 4296,
      "ĠStar": 4297,
      "Ġcreative": 4298,
      "27": 4299,
      "Ġnames": 4300,
      "Ġsetting": 4301,
      "Ġcomments": 4302,
      "ĠOffice": 4303,
      "vere": 4304,
      "Ġprefer": 4305,
      "Ġmer": 4306,
      "Ġphoto": 4307,
      "Ġmouth": 4308,
      "ĠHist": 4309,
      "Ġadop": 4310,
      "Ġcivil": 4311,
      "âĤ¬âĦ¢": 4312,
      "Ġsatis": 4313,
      "reek": 4314,
      "ĠBoard": 4315,
      "ĠLord": 4316,
      "ĠPeter": 4317,
      "Ġslide": 4318,
      "Ġhotel": 4319,
      "rem": 4320,
      "Ġsports": 4321,
      "riage": 4322,
      "ĠJew": 4323,
      "ker": 4324,
      "Ġchem": 4325,
      "Ġleader": 4326,
      "ĠClick": 4327,
      "Ġharm": 4328,
      "Ġmission": 4329,
      "ĠAbout": 4330,
      "anging": 4331,
      "Ġmill": 4332,
      "ĠLeague": 4333,
      "Ġperhaps": 4334,
      "Ġfunny": 4335,
      "ero": 4336,
      "Ġdance": 4337,
      "Ġrare": 4338,
      "estival": 4339,
      "Ġended": 4340,
      "Ġfear": 4341,
      "Ġyellow": 4342,
      "ech": 4343,
      "oop": 4344,
      "Ġju": 4345,
      "Ġrepe": 4346,
      "Ġcritical": 4347,
      "porary": 4348,
      "irection": 4349,
      "Ġsuff": 4350,
      "Ġking": 4351,
      "45": 4352,
      "ellig": 4353,
      "erous": 4354,
      "Ġforget": 4355,
      "Ġtruly": 4356,
      "OM": 4357,
      "Ġâ": 4358,
      "Ġmechan": 4359,
      "Ġaudience": 4360,
      "ĠLoc": 4361,
      "ĠInternet": 4362,
      "Ġelements": 4363,
      "Ġfootball": 4364,
      "Ġ2019": 4365,
      "iger": 4366,
      "ĠTime": 4367,
      "Ġleaving": 4368,
      "ĠFollow": 4369,
      "Ġsociety": 4370,
      "ĠSpot": 4371,
      "see": 4372,
      "Ġ35": 4373,
      "ĠPublic": 4374,
      "Ġcollabor": 4375,
      "ĠMal": 4376,
      "raw": 4377,
      "Ġkilled": 4378,
      "box": 4379,
      "Ġestablish": 4380,
      "ĠBur": 4381,
      "antic": 4382,
      "Ġbasic": 4383,
      "Don": 4384,
      "ĠRock": 4385,
      "amic": 4386,
      "Ġtruth": 4387,
      "Ġcentral": 4388,
      "Ġcancer": 4389,
      "Ġcamera": 4390,
      "Ġnodded": 4391,
      "Ġrefer": 4392,
      "ĠRel": 4393,
      "ĠVir": 4394,
      "ĠSing": 4395,
      "Ġolder": 4396,
      "Ġpages": 4397,
      "Ġstatus": 4398,
      "Ġcash": 4399,
      "Ġsister": 4400,
      "ĠReview": 4401,
      "Ġessential": 4402,
      "Ġalle": 4403,
      "Ġframe": 4404,
      "elled": 4405,
      "Ġsuppl": 4406,
      "Ġprimary": 4407,
      "Ġchair": 4408,
      "iest": 4409,
      "Ġappreci": 4410,
      "Ġguide": 4411,
      "ĠSpe": 4412,
      "Ġcontinu": 4413,
      "aked": 4414,
      "aming": 4415,
      "Ġhusband": 4416,
      "Ġgirls": 4417,
      "example": 4418,
      "ĠTop": 4419,
      "Ġeasier": 4420,
      "Ġreplied": 4421,
      "ĠMil": 4422,
      "imin": 4423,
      "ĠWho": 4424,
      "Ġnoted": 4425,
      "ĠFlorida": 4426,
      "Ġhomes": 4427,
      "orthern": 4428,
      "Ġpartner": 4429,
      "Ġperformed": 4430,
      "ĠPM": 4431,
      "28": 4432,
      "Ġegg": 4433,
      "ĠLook": 4434,
      "Ġpool": 4435,
      "ander": 4436,
      "Ġwatching": 4437,
      "Ġwelcome": 4438,
      "ĠEduc": 4439,
      "ĠCheck": 4440,
      "Ġbul": 4441,
      "Ġclin": 4442,
      "Ġresist": 4443,
      "oos": 4444,
      "ais": 4445,
      "Ġsteps": 4446,
      "acity": 4447,
      "ĠLife": 4448,
      "Ġhom": 4449,
      "coming": 4450,
      "ĠClass": 4451,
      "Ġrab": 4452,
      "ĠMaybe": 4453,
      "Ġjoined": 4454,
      "iller": 4455,
      "Ġunf": 4456,
      "Ġworkers": 4457,
      "Ġstars": 4458,
      "orial": 4459,
      "ĠEveryone": 4460,
      "iverse": 4461,
      "ĠChic": 4462,
      "Ġinstruct": 4463,
      "inese": 4464,
      "ports": 4465,
      "Ġremind": 4466,
      "Ġguy": 4467,
      "ĠRobert": 4468,
      "Ġquiet": 4469,
      "PS": 4470,
      "phone": 4471,
      "Ġsud": 4472,
      "hens": 4473,
      "Ġstrategy": 4474,
      "ption": 4475,
      "icine": 4476,
      "ĠCare": 4477,
      "bert": 4478,
      "eal": 4479,
      "Ġabsolute": 4480,
      "Ġestim": 4481,
      "Ġ]": 4482,
      "Ġbrain": 4483,
      "Ġseeing": 4484,
      "Ġinternet": 4485,
      "ĠSal": 4486,
      "Ġ2004": 4487,
      "ĠCamp": 4488,
      "ĠFinally": 4489,
      "Ġbatter": 4490,
      "Ġbackground": 4491,
      "Ġaccur": 4492,
      "Ġ2020": 4493,
      "Ġ2000": 4494,
      "ĠLove": 4495,
      "Ġtelevision": 4496,
      "akers": 4497,
      "Ġfinding": 4498,
      "Ġfeels": 4499,
      "ĠBet": 4500,
      "Ġeating": 4501,
      "ĠScott": 4502,
      "Ġregarding": 4503,
      "Ġremains": 4504,
      "EL": 4505,
      "tr": 4506,
      "Ġoffering": 4507,
      "Ġdevices": 4508,
      "ĠWin": 4509,
      "ĠMake": 4510,
      "Ġwaiting": 4511,
      "Ġmanager": 4512,
      "Ġprofession": 4513,
      "Ġfaith": 4514,
      "Ġbiggest": 4515,
      "berg": 4516,
      "Ġteacher": 4517,
      "dd": 4518,
      "ĠMount": 4519,
      "hol": 4520,
      "Ġunit": 4521,
      "edy": 4522,
      "Ġge": 4523,
      "gl": 4524,
      "Ġcompon": 4525,
      "Ġdriving": 4526,
      "Ġriver": 4527,
      "ented": 4528,
      "Ġdelivery": 4529,
      "Ġjobs": 4530,
      "Ġearth": 4531,
      "well": 4532,
      "ius": 4533,
      "ulate": 4534,
      "Ġ193": 4535,
      "apter": 4536,
      "Ġcomfortable": 4537,
      "Ġ90": 4538,
      "Ġfan": 4539,
      "Ġincred": 4540,
      "ĠCur": 4541,
      "Ġexisting": 4542,
      "Ġprotection": 4543,
      "aving": 4544,
      "ĠMarket": 4545,
      "Ġexhib": 4546,
      "Ġthrow": 4547,
      "Ġgrant": 4548,
      "Ġbecoming": 4549,
      "Ġuseful": 4550,
      "ĠMexic": 4551,
      "imal": 4552,
      "Ġkid": 4553,
      "oving": 4554,
      "ĠHen": 4555,
      "Ġaren": 4556,
      "Ġsurprised": 4557,
      "Ġcalls": 4558,
      "Ġdespite": 4559,
      "Ġcarefully": 4560,
      "odes": 4561,
      "unte": 4562,
      "Ġextremely": 4563,
      "Ġadvantage": 4564,
      "Ġrecorded": 4565,
      "gn": 4566,
      "oices": 4567,
      "itz": 4568,
      "ĠSue": 4569,
      "Ġvirt": 4570,
      "Ġanimal": 4571,
      "ki": 4572,
      "Ġknows": 4573,
      "Ġir": 4574,
      "ĠStr": 4575,
      "Ġ%": 4576,
      "Ġdistrict": 4577,
      "Ġlikes": 4578,
      "rab": 4579,
      "Ġexperienced": 4580,
      "Ġcompetition": 4581,
      "Ġtoward": 4582,
      "friend": 4583,
      "vin": 4584,
      "Ġcounter": 4585,
      "Ġtall": 4586,
      "Ġtraffic": 4587,
      "Ġdriver": 4588,
      "uled": 4589,
      "Ġfab": 4590,
      "Ġelectric": 4591,
      "Ġrap": 4592,
      "Ġguys": 4593,
      "Ġsounds": 4594,
      "Ġmail": 4595,
      "Ġdemonstr": 4596,
      "Ġtail": 4597,
      "rees": 4598,
      "Ġstream": 4599,
      "Ġwww": 4600,
      "ĠThanks": 4601,
      "cel": 4602,
      "ĠTy": 4603,
      "Ġradio": 4604,
      "Ġapprox": 4605,
      "ervation": 4606,
      "Ġtro": 4607,
      "Ġbought": 4608,
      "Ġpsych": 4609,
      "29": 4610,
      "ĠHum": 4611,
      "Ġindependent": 4612,
      "Ġlegisl": 4613,
      "Ġplants": 4614,
      "Ġaccident": 4615,
      "Ġsmaller": 4616,
      "Ġeconomy": 4617,
      "ĠDown": 4618,
      "ĠDemocr": 4619,
      "ror": 4620,
      "Ġpros": 4621,
      "Ġfant": 4622,
      "ĠFranc": 4623,
      "Ġentertain": 4624,
      "ona": 4625,
      "Ġlady": 4626,
      "Ġ70": 4627,
      "Ġlibr": 4628,
      "Ġobv": 4629,
      "75": 4630,
      "Ġspring": 4631,
      "irty": 4632,
      "ym": 4633,
      "inct": 4634,
      "ello": 4635,
      "ĠFore": 4636,
      "Ġpray": 4637,
      "ĠDirector": 4638,
      "Ġclient": 4639,
      "Ġoperations": 4640,
      "Ġadjust": 4641,
      "hem": 4642,
      "ĠQue": 4643,
      "ĠHol": 4644,
      "Ġrich": 4645,
      "semb": 4646,
      "Ġeval": 4647,
      "Ġbutton": 4648,
      "Ġer": 4649,
      "Ġargu": 4650,
      "Ġjoy": 4651,
      "Ġdiet": 4652,
      "ĠST": 4653,
      "ĠCongress": 4654,
      "Ġcritic": 4655,
      "ĠObama": 4656,
      "ĠFam": 4657,
      "Ġjournal": 4658,
      "ĠBack": 4659,
      "ga": 4660,
      "ĠBank": 4661,
      "ipl": 4662,
      "Ġign": 4663,
      "Ġlose": 4664,
      "ĠPlan": 4665,
      "ĠSum": 4666,
      "Ġtherefore": 4667,
      "ĠBer": 4668,
      "ĠUse": 4669,
      "ĠMusic": 4670,
      "Ġmajority": 4671,
      "Ġwest": 4672,
      "ĠCommission": 4673,
      "Ġminute": 4674,
      "Ġcrow": 4675,
      "Ġincome": 4676,
      "cean": 4677,
      "Ġbeat": 4678,
      "ĠChinese": 4679,
      "ĠChild": 4680,
      "ĠSomet": 4681,
      "ĠBefore": 4682,
      "ĠPhot": 4683,
      "apers": 4684,
      "gency": 4685,
      "ĠSa": 4686,
      "nel": 4687,
      "ĠWil": 4688,
      "anta": 4689,
      "ĠBoth": 4690,
      "pective": 4691,
      "Ġdestroy": 4692,
      "IG": 4693,
      "ĠBre": 4694,
      "Thank": 4695,
      "Ġidentify": 4696,
      "Ġtired": 4697,
      "Ġpreviously": 4698,
      "ĠApple": 4699,
      "Ġtend": 4700,
      "Ġblocks": 4701,
      "Ġholding": 4702,
      "Ġdirection": 4703,
      "ĠFrank": 4704,
      "Ġfamous": 4705,
      "Ġcaught": 4706,
      "encies": 4707,
      "Ġcorner": 4708,
      "Ġdrop": 4709,
      "Ġforms": 4710,
      "Ġappropriate": 4711,
      "IV": 4712,
      "annel": 4713,
      "ĠBlue": 4714,
      "Ġfourth": 4715,
      "ĠConst": 4716,
      "Ġbrown": 4717,
      "uty": 4718,
      "Ġhole": 4719,
      "osh": 4720,
      "Ġmanaged": 4721,
      "ĠDet": 4722,
      "ĠDesign": 4723,
      "ĠJapanese": 4724,
      "Ġbecomes": 4725,
      "Ġraised": 4726,
      "Ġmaster": 4727,
      "Ġplus": 4728,
      "Ġwhom": 4729,
      "ĠFrance": 4730,
      "ST": 4731,
      "Ġthus": 4732,
      "ĠYear": 4733,
      "Ġevening": 4734,
      "bye": 4735,
      "Ġfif": 4736,
      "Ġfaster": 4737,
      "ception": 4738,
      "Ġafford": 4739,
      "Ġwinter": 4740,
      "ĠIsland": 4741,
      "Ġrat": 4742,
      "Ġbalance": 4743,
      "ĠMcC": 4744,
      "ĠAfrica": 4745,
      "ĠHill": 4746,
      "Ġcontinues": 4747,
      "right": 4748,
      "Ġturns": 4749,
      "Ġcurious": 4750,
      "ĠMatt": 4751,
      "CC": 4752,
      "Ġbrief": 4753,
      "part": 4754,
      "ĠLake": 4755,
      "Ġhat": 4756,
      "Ġreality": 4757,
      "Ġcoach": 4758,
      "Ġbask": 4759,
      "Ġactual": 4760,
      "Ġclimb": 4761,
      "Ġchart": 4762,
      "ĠWhere": 4763,
      "Ġmodels": 4764,
      "Ġpresented": 4765,
      "Ġpair": 4766,
      "dule": 4767,
      "ores": 4768,
      "ĠCap": 4769,
      "Ġexplained": 4770,
      "cles": 4771,
      "Ġcitiz": 4772,
      "ĠPress": 4773,
      "ĠTimes": 4774,
      "itness": 4775,
      "Ġshel": 4776,
      "Ġforeign": 4777,
      "bered": 4778,
      "Ġshape": 4779,
      "ĠStep": 4780,
      "overy": 4781,
      "Ġmaint": 4782,
      "Ġappears": 4783,
      "Ġiniti": 4784,
      "Ġneighbor": 4785,
      "Ġguarant": 4786,
      "Ġdecor": 4787,
      "Ġsigned": 4788,
      "Ġtim": 4789,
      "osure": 4790,
      "Ġcommit": 4791,
      "MS": 4792,
      "Ġconference": 4793,
      "LE": 4794,
      "ses": 4795,
      "Ġconnection": 4796,
      "Ġinteract": 4797,
      "miss": 4798,
      "arp": 4799,
      "ĠChicago": 4800,
      "Ġmethods": 4801,
      "ĠThomas": 4802,
      "Ġweak": 4803,
      "Ġartist": 4804,
      "yer": 4805,
      "Ġwinning": 4806,
      "Ġsequ": 4807,
      "Ġdelicious": 4808,
      "Ġeast": 4809,
      "NA": 4810,
      "ota": 4811,
      "ĠMicro": 4812,
      "ĠAtl": 4813,
      "ĠFind": 4814,
      "Ġcarried": 4815,
      "Ġcards": 4816,
      "Ġ500": 4817,
      "iques": 4818,
      "ĠNor": 4819,
      "Ġacadem": 4820,
      "ishes": 4821,
      "term": 4822,
      "Ġcoffee": 4823,
      "ien": 4824,
      "AA": 4825,
      "ppy": 4826,
      "ĠVis": 4827,
      "Ġparties": 4828,
      "ĠLear": 4829,
      "tered": 4830,
      "Ġnom": 4831,
      "mes": 4832,
      "Ġton": 4833,
      "Ġseparate": 4834,
      "Ġmotor": 4835,
      "ka": 4836,
      "Ġorganizations": 4837,
      "Ġsecure": 4838,
      "works": 4839,
      "ĠSil": 4840,
      "Ġclaims": 4841,
      "ĠWood": 4842,
      "Ġfashion": 4843,
      "Ġsch": 4844,
      "icks": 4845,
      "Ġfol": 4846,
      "Ġanc": 4847,
      "ĠWater": 4848,
      "lor": 4849,
      "Ġclothes": 4850,
      "rant": 4851,
      "ĠTur": 4852,
      "ĠIts": 4853,
      "Ġban": 4854,
      "Ġcab": 4855,
      "igan": 4856,
      "la": 4857,
      "Ġrelax": 4858,
      "Ġrecords": 4859,
      "Ġlimit": 4860,
      "ano": 4861,
      "Ch": 4862,
      "Ġincor": 4863,
      "ĠInstitute": 4864,
      "Ġguess": 4865,
      "ĠPC": 4866,
      "ologies": 4867,
      "ĠIT": 4868,
      "Ġviews": 4869,
      "Ġdistance": 4870,
      "Ġsenior": 4871,
      "Ġmetal": 4872,
      "Ġcoast": 4873,
      "Ġ2003": 4874,
      "Ġcontains": 4875,
      "night": 4876,
      "Ġmemory": 4877,
      "ĠWindows": 4878,
      "ĠHave": 4879,
      "Ġshowing": 4880,
      "Ġmentioned": 4881,
      "Ġgain": 4882,
      "oh": 4883,
      "Ġcart": 4884,
      "Ġneck": 4885,
      "Ġstorage": 4886,
      "ĠCarol": 4887,
      "ĠEnter": 4888,
      "Ġtells": 4889,
      "ĠTwitter": 4890,
      "ĠVol": 4891,
      "Ġnumerous": 4892,
      "Ġsitting": 4893,
      "Ġtaste": 4894,
      "Ġeth": 4895,
      "Ġsmooth": 4896,
      "ags": 4897,
      "Ġprepared": 4898,
      "Ġmarried": 4899,
      "illa": 4900,
      "Ġofficials": 4901,
      "Ġcells": 4902,
      "Ġ45": 4903,
      "avy": 4904,
      "standing": 4905,
      "ste": 4906,
      "Ġpayment": 4907,
      "pan": 4908,
      "igation": 4909,
      "inn": 4910,
      "100": 4911,
      "Ġrequires": 4912,
      "Ġsolid": 4913,
      "Ġdecide": 4914,
      "ooper": 4915,
      "Ġexciting": 4916,
      "ĠForm": 4917,
      "Ġfactors": 4918,
      "Ġwet": 4919,
      "Ġhonest": 4920,
      "Ġmostly": 4921,
      "Ġutil": 4922,
      "Ġteaching": 4923,
      "ĠUnion": 4924,
      "Ġarg": 4925,
      "Ġfemale": 4926,
      "Ġinitial": 4927,
      "Ġmaintain": 4928,
      "Ġcontroll": 4929,
      "itors": 4930,
      "RA": 4931,
      "Ġthick": 4932,
      "atically": 4933,
      "Ġbigger": 4934,
      "icing": 4935,
      "Ġcommunities": 4936,
      "Ġmi": 4937,
      "Ġexperiences": 4938,
      "ette": 4939,
      "Ġselection": 4940,
      "Ġdiscover": 4941,
      "Ġisland": 4942,
      "ĠOF": 4943,
      "Ġlisted": 4944,
      "Ġtransl": 4945,
      "ĠExp": 4946,
      "Ġadvance": 4947,
      "ĠUSA": 4948,
      "ĠVirgin": 4949,
      "Ġbelong": 4950,
      "entially": 4951,
      "IP": 4952,
      "Ġpulled": 4953,
      "uries": 4954,
      "Ġstarts": 4955,
      "Ġmanufacture": 4956,
      "Ġcalc": 4957,
      "oles": 4958,
      "Ġwhatever": 4959,
      "Ġdeveloping": 4960,
      "Ġtherap": 4961,
      "known": 4962,
      "Ġactions": 4963,
      "Ġsexual": 4964,
      "Ġunc": 4965,
      "Ġdefend": 4966,
      "ĠFil": 4967,
      "unny": 4968,
      "Ġtrial": 4969,
      "Ġshap": 4970,
      "Ġbike": 4971,
      "Ġthanks": 4972,
      "Can": 4973,
      "ĠCentral": 4974,
      "Ġbusy": 4975,
      "Ġhappens": 4976,
      "Ġkeeping": 4977,
      "text": 4978,
      "enses": 4979,
      "rd": 4980,
      "Ġlaunch": 4981,
      "Ġweap": 4982,
      "Ġstandards": 4983,
      "Ġfill": 4984,
      "ortunately": 4985,
      "Ġsources": 4986,
      "Ġnotes": 4987,
      "Ġselected": 4988,
      "Ġremem": 4989,
      "Ġrule": 4990,
      "Ġgraph": 4991,
      "Ġunits": 4992,
      "Ġguid": 4993,
      "ĠJer": 4994,
      "Ġrub": 4995,
      "Ġtight": 4996,
      "Ġagreement": 4997,
      "Ġmanage": 4998,
      "Ġmine": 4999,
      "95": 5000,
      "Ġpal": 5001,
      "Ġhaven": 5002,
      "Ġlaun": 5003,
      "ĠTor": 5004,
      "Ġarchitect": 5005,
      "Ġsession": 5006,
      "Ġadapt": 5007,
      "verse": 5008,
      "ĠAtt": 5009,
      "Ġpresence": 5010,
      "Ġcrew": 5011,
      "Ġflu": 5012,
      "Ġexercise": 5013,
      "win": 5014,
      "Ġchallenges": 5015,
      "Ġfurn": 5016,
      "Ġnine": 5017,
      "ĠSqu": 5018,
      "Ġelection": 5019,
      "Ġdiscovered": 5020,
      "ĠWestern": 5021,
      "Ġvote": 5022,
      "Ġlesson": 5023,
      "DA": 5024,
      "Ġminor": 5025,
      "Ġveget": 5026,
      "ĠCommittee": 5027,
      "Ġforced": 5028,
      "Ġexclus": 5029,
      "ĠArch": 5030,
      "ĠGame": 5031,
      "Ġjumped": 5032,
      "ĠProfess": 5033,
      "33": 5034,
      "look": 5035,
      "ĠVe": 5036,
      "ĠGovernment": 5037,
      "Ġsugar": 5038,
      "Ġdangerous": 5039,
      "Ġslowly": 5040,
      "icken": 5041,
      "Ġretail": 5042,
      "Ġseat": 5043,
      "ĠDec": 5044,
      "Ġfunds": 5045,
      "Ġinfluence": 5046,
      "Ġring": 5047,
      "gers": 5048,
      "ĠCup": 5049,
      "Ġfailed": 5050,
      "osis": 5051,
      "ĠAustralian": 5052,
      "Ġbowl": 5053,
      "Ġmur": 5054,
      "ĠLat": 5055,
      "ucle": 5056,
      "eless": 5057,
      "ĠIns": 5058,
      "care": 5059,
      "Ġcalling": 5060,
      "ĠNY": 5061,
      "Ġimpl": 5062,
      "Look": 5063,
      "ĠPower": 5064,
      "Ġsharing": 5065,
      "ĠHam": 5066,
      "Ġconfl": 5067,
      "Ġasking": 5068,
      "ĠMass": 5069,
      "amin": 5070,
      "Ġcapacity": 5071,
      "Ġdetermine": 5072,
      "Ġoperation": 5073,
      "Ġadding": 5074,
      "ĠEarth": 5075,
      "Ġarms": 5076,
      "Ġingred": 5077,
      "OL": 5078,
      "Ġresidents": 5079,
      "ĠHy": 5080,
      "arsh": 5081,
      "Ġbasket": 5082,
      "Ġroute": 5083,
      "Ġwine": 5084,
      "Ġdropped": 5085,
      "uated": 5086,
      "Ġstret": 5087,
      "ads": 5088,
      "Ġflav": 5089,
      "ushing": 5090,
      "Ġflower": 5091,
      "Ġestate": 5092,
      "Ġvideos": 5093,
      "OW": 5094,
      "ading": 5095,
      "estic": 5096,
      "Ġflex": 5097,
      "ĠAmaz": 5098,
      "Ġbroke": 5099,
      "bour": 5100,
      "ĠPR": 5101,
      "Ġvoc": 5102,
      "Ġlunch": 5103,
      "Ġpra": 5104,
      "Ġdu": 5105,
      "ĠMike": 5106,
      "ĠEducation": 5107,
      "ĠLos": 5108,
      "Ġinstru": 5109,
      "Ġwedding": 5110,
      "65": 5111,
      "Ġwriter": 5112,
      "Ġexpensive": 5113,
      "Ġoutd": 5114,
      "Ġhandle": 5115,
      "ĠOnline": 5116,
      "ĠJud": 5117,
      "Ġspending": 5118,
      "ĠAward": 5119,
      "Ġthousands": 5120,
      "fast": 5121,
      "Ġessay": 5122,
      "Ġtechnical": 5123,
      "Ġcopy": 5124,
      "Ġgrabbed": 5125,
      "Ġintroduced": 5126,
      "Ġmicro": 5127,
      "roid": 5128,
      "Ġappearance": 5129,
      "Ġhung": 5130,
      "Ġremained": 5131,
      "Ġremove": 5132,
      "Ġlaws": 5133,
      "ĠGermany": 5134,
      "Ġrabbit": 5135,
      "Ġtesting": 5136,
      "Ġthr": 5137,
      "Ġseek": 5138,
      "ĠProject": 5139,
      "Ġleadership": 5140,
      "Ġrestrict": 5141,
      "ĠInformation": 5142,
      "elly": 5143,
      "ĠManagement": 5144,
      "Ġhar": 5145,
      "ĠTake": 5146,
      "Ġforgot": 5147,
      "Ġder": 5148,
      "Ġgoodbye": 5149,
      "Ġscale": 5150,
      "TS": 5151,
      "Ġvictim": 5152,
      "eper": 5153,
      "Ġtips": 5154,
      "Ġbug": 5155,
      "ĠJul": 5156,
      "ĠArmy": 5157,
      "ĠDespite": 5158,
      "ĠMel": 5159,
      "Ġtun": 5160,
      "umber": 5161,
      "ĠCall": 5162,
      "ĠOld": 5163,
      "kin": 5164,
      "Ġfruit": 5165,
      "Ġposted": 5166,
      "ĠDistrict": 5167,
      "isation": 5168,
      "Ġcommunication": 5169,
      "Ġpond": 5170,
      "Ġideal": 5171,
      "ĠVict": 5172,
      "ĠShow": 5173,
      "usion": 5174,
      "rain": 5175,
      "Ġtask": 5176,
      "Ġclasses": 5177,
      "ĠEll": 5178,
      "Ġswing": 5179,
      "orney": 5180,
      "gment": 5181,
      "Ġsched": 5182,
      "Ġhorse": 5183,
      "Ġselling": 5184,
      "Ġtrail": 5185,
      "Ġlinks": 5186,
      "ĠLouis": 5187,
      "ĠCanad": 5188,
      "Ġboo": 5189,
      "Ġmap": 5190,
      "Ġclearly": 5191,
      "Ġotherwise": 5192,
      "Ġshut": 5193,
      "ampionship": 5194,
      "UR": 5195,
      "Ġoccup": 5196,
      "Ġmarriage": 5197,
      "ĠRad": 5198,
      "Ġconcent": 5199,
      "Ġedge": 5200,
      "Ġnearby": 5201,
      "Ġarrest": 5202,
      "Ġplays": 5203,
      "Ġmagn": 5204,
      "Ġinjury": 5205,
      "Ġartists": 5206,
      "Ġpink": 5207,
      "Ġopinion": 5208,
      "ĠParty": 5209,
      "mpt": 5210,
      "idden": 5211,
      "Ġpush": 5212,
      "ena": 5213,
      "iture": 5214,
      "ĠAmericans": 5215,
      "ĠScience": 5216,
      "ĠSecond": 5217,
      "ront": 5218,
      "soft": 5219,
      "Ġrestaurant": 5220,
      "Ġvictory": 5221,
      "Ġdedicated": 5222,
      "Ġslightly": 5223,
      "een": 5224,
      "Ġhelpful": 5225,
      "istan": 5226,
      "ĠElect": 5227,
      "Ġfocused": 5228,
      "Ġallowing": 5229,
      "state": 5230,
      "Ġvir": 5231,
      "Ġpassion": 5232,
      "Ġfiles": 5233,
      "Ġstanding": 5234,
      "ĠMont": 5235,
      "Ġcris": 5236,
      "while": 5237,
      "Ġfort": 5238,
      "ania": 5239,
      "ocolate": 5240,
      "gen": 5241,
      "Ġdefense": 5242,
      "ĠLong": 5243,
      "Ġwilling": 5244,
      "Ġbelieved": 5245,
      "ĠSpecial": 5246,
      "Ġmouse": 5247,
      "Ġintended": 5248,
      "ĠMain": 5249,
      "ĠTeam": 5250,
      "Ġpretend": 5251,
      "Ġ2001": 5252,
      "ĠOpen": 5253,
      "Ġprison": 5254,
      "anda": 5255,
      "ograp": 5256,
      "ocket": 5257,
      "ropical": 5258,
      "Ġpredict": 5259,
      "Ġstayed": 5260,
      "Ġspect": 5261,
      "Ġcraft": 5262,
      "ĠSocial": 5263,
      "iliar": 5264,
      "uit": 5265,
      "ĠJen": 5266,
      "Ġfacilities": 5267,
      "Ġremoved": 5268,
      "Ġvisual": 5269,
      "Ġvolunte": 5270,
      "unction": 5271,
      "Ġvan": 5272,
      "Ġvillage": 5273,
      "BS": 5274,
      "Ġbehavior": 5275,
      "odies": 5276,
      "oma": 5277,
      "Ġformed": 5278,
      "Ġate": 5279,
      "Ġconflict": 5280,
      "Ġpolic": 5281,
      "ĠMot": 5282,
      "asp": 5283,
      "Ġcasino": 5284,
      "Ġ2002": 5285,
      "osen": 5286,
      "Ġtemperature": 5287,
      "ĠDivision": 5288,
      "Ġtheme": 5289,
      "nect": 5290,
      "icon": 5291,
      "âĢĿ,": 5292,
      "Ġteach": 5293,
      "Ġsupported": 5294,
      "Ġvision": 5295,
      "Ġintellig": 5296,
      "Ġ190": 5297,
      "Ġadvanced": 5298,
      "ĠWall": 5299,
      "orter": 5300,
      "Ġvalues": 5301,
      "isco": 5302,
      "Ġpun": 5303,
      "Ġmort": 5304,
      "ĠÃ": 5305,
      "Ġfreed": 5306,
      "Ġcore": 5307,
      "Ġsty": 5308,
      "Ġfeatured": 5309,
      "Ġproposed": 5310,
      "west": 5311,
      "Ġfighting": 5312,
      "Ġdepartment": 5313,
      "Ġstrange": 5314,
      "BA": 5315,
      "EM": 5316,
      "Ġamb": 5317,
      "Ġfuel": 5318,
      "Ġhun": 5319,
      "ĠLittle": 5320,
      "ĠChris": 5321,
      "lying": 5322,
      "Ġcompar": 5323,
      "Ġapproximately": 5324,
      "fit": 5325,
      "Ġdetermined": 5326,
      "Ġproceed": 5327,
      "going": 5328,
      "Ġfilms": 5329,
      "tenance": 5330,
      "Ġplenty": 5331,
      "ĠAP": 5332,
      "ĠCD": 5333,
      "Ġmulti": 5334,
      "ĠMa": 5335,
      "ĠOl": 5336,
      "ighter": 5337,
      "But": 5338,
      "Ġstone": 5339,
      "ferences": 5340,
      "Ġflying": 5341,
      "Ġwearing": 5342,
      "Ġbeauty": 5343,
      "IM": 5344,
      "free": 5345,
      "last": 5346,
      "ĠDevelopment": 5347,
      "ĠAcadem": 5348,
      "Ġputting": 5349,
      "Ġloan": 5350,
      "yright": 5351,
      "ĠOnly": 5352,
      "ĠSand": 5353,
      "ĠTest": 5354,
      "rier": 5355,
      "ĠRoyal": 5356,
      "Ġhero": 5357,
      "ĠFire": 5358,
      "never": 5359,
      "Ġagency": 5360,
      "Â®": 5361,
      "Ġschedule": 5362,
      "Ġwaste": 5363,
      "ĠProduct": 5364,
      "IL": 5365,
      "ctors": 5366,
      "ĠDri": 5367,
      "ini": 5368,
      "ya": 5369,
      "Ġmilk": 5370,
      "Ġconven": 5371,
      "Ġdat": 5372,
      "Ġsuggested": 5373,
      "Ġaircraft": 5374,
      "Ġconcerns": 5375,
      "500": 5376,
      "Ġcircum": 5377,
      "Ġrise": 5378,
      "Ġrelationships": 5379,
      "Ġduck": 5380,
      "Ġspark": 5381,
      "Ġefficient": 5382,
      "Ġadministration": 5383,
      "ĠJohnson": 5384,
      "Ġcities": 5385,
      "Ġoperating": 5386,
      "gery": 5387,
      "Ġshopping": 5388,
      "Ġmale": 5389,
      "Ġyard": 5390,
      "Ġdecisions": 5391,
      "Ġchanging": 5392,
      "Ġindic": 5393,
      "Ġtrouble": 5394,
      "bre": 5395,
      "iency": 5396,
      "Ġpractices": 5397,
      "Ġsustain": 5398,
      "ĠTre": 5399,
      "essions": 5400,
      "Ġnor": 5401,
      "Ġsteel": 5402,
      "ĠAfrican": 5403,
      "Ġstre": 5404,
      "ĠFur": 5405,
      "Ġconnected": 5406,
      "ĠSociety": 5407,
      "ĠWomen": 5408,
      "Ġalternative": 5409,
      "Ġcontem": 5410,
      "Ġstudio": 5411,
      "Ġmissing": 5412,
      "uke": 5413,
      "Ġoriginally": 5414,
      "ĠTO": 5415,
      "noon": 5416,
      "pet": 5417,
      "iences": 5418,
      "Ġapart": 5419,
      "Ġrooms": 5420,
      "Ġnegative": 5421,
      "ĠDef": 5422,
      "Ġroof": 5423,
      "aser": 5424,
      "ev": 5425,
      "Ġbon": 5426,
      "ĠFood": 5427,
      "Ġconstruct": 5428,
      "Ġtypically": 5429,
      "ternal": 5430,
      "Ġdiagn": 5431,
      "hab": 5432,
      "ĠOper": 5433,
      "Ġsick": 5434,
      "ĠJose": 5435,
      "fly": 5436,
      "Ġscored": 5437,
      "aded": 5438,
      "ĠDou": 5439,
      "ait": 5440,
      "ĠUN": 5441,
      "Ġshoes": 5442,
      "arge": 5443,
      "Ġrail": 5444,
      "Ġguitar": 5445,
      "Ġasks": 5446,
      "Ġhill": 5447,
      "ĠHenry": 5448,
      "ola": 5449,
      "Ġfold": 5450,
      "Ġfunding": 5451,
      "ĠKore": 5452,
      "ĠView": 5453,
      "Ġcrowd": 5454,
      "Ġburn": 5455,
      "ship": 5456,
      "alls": 5457,
      "Ġfavour": 5458,
      "Ġcookies": 5459,
      "Ġremaining": 5460,
      "ĠRichard": 5461,
      "Ġmir": 5462,
      "uable": 5463,
      "han": 5464,
      "Ġlabor": 5465,
      "how": 5466,
      "Ġsquare": 5467,
      "IA": 5468,
      "resp": 5469,
      "Ġdiscussion": 5470,
      "Ġdepart": 5471,
      "Ġvs": 5472,
      "Ġaf": 5473,
      "Ġpoll": 5474,
      "ĠTri": 5475,
      "Ġrough": 5476,
      "mar": 5477,
      "Ġcombination": 5478,
      "PA": 5479,
      "ĠTommy": 5480,
      "uce": 5481,
      "ĠLight": 5482,
      "44": 5483,
      "Ġflat": 5484,
      "Ġsymb": 5485,
      "Ġbread": 5486,
      "ĠReal": 5487,
      "Ġmental": 5488,
      "Ġsector": 5489,
      "Ġresponsibility": 5490,
      "Ġplanned": 5491,
      "ĠDen": 5492,
      "ection": 5493,
      "cher": 5494,
      "ĠCommunity": 5495,
      "____": 5496,
      "Ġrapid": 5497,
      "water": 5498,
      "Ġthoughts": 5499,
      "zen": 5500,
      "ria": 5501,
      "ĠPac": 5502,
      "Ġcheap": 5503,
      "Ġgrew": 5504,
      "Ġpil": 5505,
      "Ġbuildings": 5506,
      "Ġhearing": 5507,
      "Ġflight": 5508,
      "Ġaccompl": 5509,
      "Ġholiday": 5510,
      "ĠNext": 5511,
      "Ġreligious": 5512,
      "entle": 5513,
      "Ġsport": 5514,
      "ĠInstead": 5515,
      "Ġclassic": 5516,
      "isher": 5517,
      "abilities": 5518,
      "Ġchief": 5519,
      "Ġbrings": 5520,
      "ench": 5521,
      "burg": 5522,
      "Ġentry": 5523,
      "yan": 5524,
      "Ġseconds": 5525,
      "Ġenem": 5526,
      "Ġcommission": 5527,
      "Ġbuying": 5528,
      "ĠFoundation": 5529,
      "Ġmum": 5530,
      "Ġencourage": 5531,
      "Ġsympt": 5532,
      "\",": 5533,
      "ĠCustom": 5534,
      "Ġyouth": 5535,
      "Ġjoint": 5536,
      "Ġrelevant": 5537,
      "Ġcoverage": 5538,
      "ogue": 5539,
      "88": 5540,
      "If": 5541,
      "Ġpackage": 5542,
      "Ġresident": 5543,
      "Ġadm": 5544,
      "Ġofficer": 5545,
      "Ġmagazine": 5546,
      "Ġentered": 5547,
      "Ġdogs": 5548,
      "point": 5549,
      "ĠTown": 5550,
      "ias": 5551,
      "Ġdocuments": 5552,
      "ĠJeff": 5553,
      "ĠCard": 5554,
      "Ġmagic": 5555,
      "ĠPay": 5556,
      "ivered": 5557,
      "no": 5558,
      "under": 5559,
      "Ġinspired": 5560,
      "Ġdrag": 5561,
      "Ġsubsequ": 5562,
      "Ġsides": 5563,
      "Ġschol": 5564,
      "ĠCath": 5565,
      "Ġmarkets": 5566,
      "ructure": 5567,
      "ĠBud": 5568,
      "ĠStand": 5569,
      "vention": 5570,
      "Ġexperts": 5571,
      "ĠDig": 5572,
      "ita": 5573,
      "ĠLand": 5574,
      "rehens": 5575,
      "Ġmo": 5576,
      "Ġbridge": 5577,
      "ĠValley": 5578,
      "Ġcombined": 5579,
      "Ġsets": 5580,
      "Ġapparent": 5581,
      "ĠColor": 5582,
      "ĠIll": 5583,
      "Ġraise": 5584,
      "Ġlaunched": 5585,
      "Ġrepair": 5586,
      "ĠOffic": 5587,
      "Ġpossibly": 5588,
      "Ġleads": 5589,
      "ĠEr": 5590,
      "azz": 5591,
      "rim": 5592,
      "ĠEnd": 5593,
      "yard": 5594,
      "ĠLila": 5595,
      "ĠThrough": 5596,
      "ĠMo": 5597,
      "Ġenvironmental": 5598,
      "life": 5599,
      "ĠJournal": 5600,
      "Ã¡": 5601,
      "Ġtough": 5602,
      "mail": 5603,
      "ĠWal": 5604,
      "ĠAngeles": 5605,
      "Ġremembered": 5606,
      "Ġtechniques": 5607,
      "kins": 5608,
      "phas": 5609,
      "Ġdraft": 5610,
      "ĠMur": 5611,
      "Ġnav": 5612,
      "Ġdyn": 5613,
      "ye": 5614,
      "Ġmedium": 5615,
      "ĠCop": 5616,
      "alian": 5617,
      "arian": 5618,
      "ĠMartin": 5619,
      "Ġimportance": 5620,
      "Ġwire": 5621,
      "ĠEngine": 5622,
      "Ġteachers": 5623,
      "Ġdiss": 5624,
      "Ġhouses": 5625,
      "Ġkne": 5626,
      "ĠSpan": 5627,
      "Ġbegins": 5628,
      "ĠSecret": 5629,
      "Ġlock": 5630,
      "Ġgeneration": 5631,
      "Ġflo": 5632,
      "ulture": 5633,
      "Ġextensive": 5634,
      "tion": 5635,
      "Ġpolicies": 5636,
      "terday": 5637,
      "Ġcolour": 5638,
      "36": 5639,
      "Ġserving": 5640,
      "Ġapplied": 5641,
      "Ġissued": 5642,
      "ĠCharl": 5643,
      "Ġbound": 5644,
      "ifying": 5645,
      "Ġupdate": 5646,
      "ĠThose": 5647,
      "Ġcommitted": 5648,
      "ĠLee": 5649,
      "Ġrevealed": 5650,
      "CH": 5651,
      "ella": 5652,
      "Ġmixed": 5653,
      "Ġproperties": 5654,
      "ĠVirginia": 5655,
      "Ġcheese": 5656,
      "ĠStart": 5657,
      "Ġclimate": 5658,
      "agon": 5659,
      "Ġreference": 5660,
      "ĠBuild": 5661,
      "Ġincorpor": 5662,
      "ĠJackson": 5663,
      "Ġafternoon": 5664,
      "osal": 5665,
      "ĠMer": 5666,
      "Ġbirthday": 5667,
      "ĠMinister": 5668,
      "Ġmissed": 5669,
      ");": 5670,
      "Ġprin": 5671,
      "outs": 5672,
      "Ġaccepted": 5673,
      "Ġassistance": 5674,
      "eline": 5675,
      "ĠBow": 5676,
      "Ġthinks": 5677,
      "ĠInf": 5678,
      "Ġarticles": 5679,
      "enced": 5680,
      "ĠCharles": 5681,
      "Ġexchange": 5682,
      "ĠAND": 5683,
      "Ġmaximum": 5684,
      "ommod": 5685,
      "Ġmusical": 5686,
      "esome": 5687,
      "iter": 5688,
      "ii": 5689,
      "Ġuns": 5690,
      "ĠRev": 5691,
      "Ġcitizens": 5692,
      "Ġbatt": 5693,
      "Ġtrib": 5694,
      "Ġbedroom": 5695,
      "Ġexplain": 5696,
      "Ġdoubt": 5697,
      "Ġdisappoint": 5698,
      "ĠProv": 5699,
      "ĠâĢĻ": 5700,
      "Ġofficers": 5701,
      "ĠFamily": 5702,
      "Ġunless": 5703,
      "Ġsurvey": 5704,
      "Ġexecutive": 5705,
      "Ġknowing": 5706,
      "Ġarrange": 5707,
      "ĠList": 5708,
      "adow": 5709,
      "Ġlibrary": 5710,
      "otic": 5711,
      "Ġuniversity": 5712,
      "lymp": 5713,
      "Ġphil": 5714,
      "Ġsupposed": 5715,
      "what": 5716,
      "II": 5717,
      "Ġmm": 5718,
      "Ġ?": 5719,
      "Ġdetect": 5720,
      "ĠMedia": 5721,
      "Ġgreatest": 5722,
      "leg": 5723,
      "Ġordered": 5724,
      "Ġbac": 5725,
      "Ġemp": 5726,
      "Ġplate": 5727,
      "ĠExper": 5728,
      "Ġabsolutely": 5729,
      "Ġshouted": 5730,
      "Ġswitch": 5731,
      "Ġsoul": 5732,
      "Ġ32": 5733,
      "Ġath": 5734,
      "ĠJones": 5735,
      "Ġleague": 5736,
      "Ġreduced": 5737,
      "Ġlabel": 5738,
      "Ġassum": 5739,
      "Ġcultural": 5740,
      "Ġscript": 5741,
      "Ġfee": 5742,
      "Ġbuck": 5743,
      "obe": 5744,
      "Ġgather": 5745,
      "Ġupgr": 5746,
      "cious": 5747,
      "Ġrecommended": 5748,
      "unning": 5749,
      "Ġrot": 5750,
      "ĠGen": 5751,
      "but": 5752,
      "ĠLater": 5753,
      "inations": 5754,
      "itable": 5755,
      "Ġmeasures": 5756,
      "Ġingredients": 5757,
      "Ġposts": 5758,
      "Ġsalt": 5759,
      "anged": 5760,
      "Ġcontext": 5761,
      "paper": 5762,
      "Ġtea": 5763,
      "Ġorders": 5764,
      "ĠTrump": 5765,
      "Ġships": 5766,
      "Ġ300": 5767,
      "ĠAmazon": 5768,
      "ĠHead": 5769,
      "icians": 5770,
      "ĠRussian": 5771,
      "Ġtaught": 5772,
      "Ġjudge": 5773,
      "ĠMat": 5774,
      "ishing": 5775,
      "Ġguests": 5776,
      "ordin": 5777,
      "Ġmoral": 5778,
      "Ġobt": 5779,
      "ĠSometimes": 5780,
      "ĠCast": 5781,
      "oston": 5782,
      "Ġrom": 5783,
      "ĠAmy": 5784,
      "Ġkill": 5785,
      "Ġlake": 5786,
      "Ġeditor": 5787,
      "ĠVictor": 5788,
      "ĠOrgan": 5789,
      "ĠHaw": 5790,
      "Ġfixed": 5791,
      "eed": 5792,
      "Ġdebt": 5793,
      "ateful": 5794,
      "ĠPerson": 5795,
      "Ġelement": 5796,
      "ĠCanadian": 5797,
      "Ġfollows": 5798,
      "Ġmanner": 5799,
      "iration": 5800,
      "Ġsevere": 5801,
      "Ġlocations": 5802,
      "Ġtransform": 5803,
      "uration": 5804,
      "Ġstuck": 5805,
      "Ġimproved": 5806,
      "Ġviolence": 5807,
      "Ġgall": 5808,
      "Ġcentre": 5809,
      "Ġwished": 5810,
      "Ġplastic": 5811,
      "ĠNov": 5812,
      "irmed": 5813,
      "Ġ36": 5814,
      "hone": 5815,
      "Ġiron": 5816,
      "ĠMuseum": 5817,
      "Ġspons": 5818,
      "ĠBeach": 5819,
      "Ġtheory": 5820,
      "ender": 5821,
      "Ġreaders": 5822,
      "Ġreact": 5823,
      "ether": 5824,
      "Ġcried": 5825,
      "Ġune": 5826,
      "Ġwalls": 5827,
      "ĠVer": 5828,
      "uations": 5829,
      "ĠOlymp": 5830,
      "Ġyummy": 5831,
      "Ġtelling": 5832,
      "78": 5833,
      "Ġconcert": 5834,
      "Ġreplaced": 5835,
      "Ġwealth": 5836,
      "ÃŃ": 5837,
      "oup": 5838,
      "rical": 5839,
      "Ġcleaning": 5840,
      "atre": 5841,
      "32": 5842,
      "38": 5843,
      "oted": 5844,
      "ifts": 5845,
      "Ġrecip": 5846,
      "Ġoptim": 5847,
      "ĠWay": 5848,
      "Ġment": 5849,
      "Ġspeech": 5850,
      "gage": 5851,
      "ĠBoy": 5852,
      "ĠDi": 5853,
      "met": 5854,
      "Ġnucle": 5855,
      "inos": 5856,
      "Ġchemical": 5857,
      "ifications": 5858,
      "ĠBilly": 5859,
      "ENT": 5860,
      "Ġtiny": 5861,
      "hered": 5862,
      "34": 5863,
      "Ġhyd": 5864,
      "!âĢĿ": 5865,
      "aks": 5866,
      "Ġoccasion": 5867,
      "Ġinternal": 5868,
      "Ġboys": 5869,
      "Ġrecording": 5870,
      "ĠData": 5871,
      "Ġeverywhere": 5872,
      "Ġsigns": 5873,
      "Ġcro": 5874,
      "Ġsatisf": 5875,
      "Ġflood": 5876,
      "Ġdesk": 5877,
      "Ġvehicles": 5878,
      "Ġobl": 5879,
      "Ġfailure": 5880,
      "ource": 5881,
      "Ġfamiliar": 5882,
      "Ġbringing": 5883,
      "iminal": 5884,
      "ideo": 5885,
      "Ġvisitors": 5886,
      "Ġspin": 5887,
      "Ġfeat": 5888,
      "Ġguard": 5889,
      "Ġlovely": 5890,
      "Ġconsequ": 5891,
      "Ġmountain": 5892,
      "Ġcharges": 5893,
      "ĠKeep": 5894,
      "Ġhide": 5895,
      "road": 5896,
      "Ġmovies": 5897,
      "hus": 5898,
      "Ġspecifically": 5899,
      "ĠAS": 5900,
      "Ġtwice": 5901,
      "Ġpromote": 5902,
      "Ġfacility": 5903,
      "ĠKen": 5904,
      "Ġdesire": 5905,
      "Ġconclud": 5906,
      "ĠSeries": 5907,
      "Ġteeth": 5908,
      "Ġvolume": 5909,
      "Ġdie": 5910,
      "alled": 5911,
      "ĠMen": 5912,
      "Ġminimum": 5913,
      "Ġblank": 5914,
      "ĠAC": 5915,
      "iner": 5916,
      "Ġprofessionals": 5917,
      "word": 5918,
      "ĠPan": 5919,
      "Ġdelivered": 5920,
      "ĠMexico": 5921,
      "Ġsuddenly": 5922,
      "Ġscr": 5923,
      "prise": 5924,
      "Ġpregn": 5925,
      "ems": 5926,
      "Ġconversation": 5927,
      "Ġextended": 5928,
      "Ġwitness": 5929,
      "ĠChief": 5930,
      "Ġmaintenance": 5931,
      "Ġattacks": 5932,
      "Ġapproved": 5933,
      "ĠPub": 5934,
      "Ġris": 5935,
      "55": 5936,
      "ĠJon": 5937,
      "ĠGal": 5938,
      "Ġvent": 5939,
      "Ġlandsc": 5940,
      "ĠWhether": 5941,
      "Ġpromise": 5942,
      "asks": 5943,
      "Ġdial": 5944,
      "Ġbond": 5945,
      "pected": 5946,
      "ĠWeek": 5947,
      "ĠMicrosoft": 5948,
      "ubb": 5949,
      "Ġadults": 5950,
      "Ġaffected": 5951,
      "ums": 5952,
      "Ġaid": 5953,
      "Ġfreedom": 5954,
      "Ġquant": 5955,
      "rist": 5956,
      "Ġblow": 5957,
      "agers": 5958,
      "Ġcastle": 5959,
      "ĠPolice": 5960,
      "Ġprofile": 5961,
      "Ġformat": 5962,
      "Ġidentified": 5963,
      "Ġprocesses": 5964,
      "clusion": 5965,
      "oti": 5966,
      "ups": 5967,
      "Mom": 5968,
      "Ġinterests": 5969,
      "Ġbreath": 5970,
      "Ġacademic": 5971,
      "Ġrank": 5972,
      "Ġkiss": 5973,
      "Ġcorporate": 5974,
      "Ġrelatively": 5975,
      "ĠBoston": 5976,
      "fol": 5977,
      "Ġseeking": 5978,
      "Ġremark": 5979,
      "Ġaccommod": 5980,
      "Ġpin": 5981,
      "astern": 5982,
      "Ġfees": 5983,
      "Ġcreation": 5984,
      "oration": 5985,
      "iat": 5986,
      "Ġsav": 5987,
      "VD": 5988,
      "ĠMichigan": 5989,
      "ĠBas": 5990,
      "Ġshell": 5991,
      "ĠFred": 5992,
      "Ġrid": 5993,
      "Ġstores": 5994,
      "Ġannounce": 5995,
      "Ġanywhere": 5996,
      "ashed": 5997,
      "ĠId": 5998,
      "ensions": 5999,
      "Ġsem": 6000,
      "isted": 6001,
      "Ġourselves": 6002,
      "Ġft": 6003,
      "Ġcircumst": 6004,
      "Ġyards": 6005,
      "rif": 6006,
      "inet": 6007,
      "Ġdecre": 6008,
      "Ġbunny": 6009,
      "Ġvalid": 6010,
      "Ġconfident": 6011,
      "Ġsymptoms": 6012,
      "Ġren": 6013,
      "Ġaspects": 6014,
      "Ġends": 6015,
      "Ġhappily": 6016,
      "Ġmel": 6017,
      "nic": 6018,
      "Ġdepos": 6019,
      "real": 6020,
      "ĠThree": 6021,
      "ĠFour": 6022,
      "Ġcourses": 6023,
      "Ġgentle": 6024,
      "Ġproperly": 6025,
      "Ġhell": 6026,
      "Ġshipping": 6027,
      "ĠSecurity": 6028,
      "Ġchocolate": 6029,
      "ĠCEO": 6030,
      "cohol": 6031,
      "Ġconcerned": 6032,
      "itionally": 6033,
      "top": 6034,
      "ĠContact": 6035,
      "37": 6036,
      "Ġmotiv": 6037,
      "Ġpanel": 6038,
      "Ġworried": 6039,
      "ĠDev": 6040,
      "Ġearned": 6041,
      "rate": 6042,
      "ĠSpanish": 6043,
      "Ġemphas": 6044,
      "Ġtalked": 6045,
      "Ġsac": 6046,
      "Ġloves": 6047,
      "Ġkinds": 6048,
      "ownt": 6049,
      "Ġpurposes": 6050,
      "Ġinstance": 6051,
      "Ġdesigns": 6052,
      "Ġresearc": 6053,
      "ĠTour": 6054,
      "Ġagent": 6055,
      "Ġpositions": 6056,
      "Ġdecades": 6057,
      "IR": 6058,
      "FL": 6059,
      "ĠWild": 6060,
      "Ġcauses": 6061,
      "ĠRE": 6062,
      "Ġdirected": 6063,
      "Ġbattery": 6064,
      "Ġspok": 6065,
      "Ġveter": 6066,
      "ĠSign": 6067,
      "Ġdollars": 6068,
      "isters": 6069,
      "ultural": 6070,
      "Ġconfidence": 6071,
      "iples": 6072,
      "Ġemergency": 6073,
      "Ġdelight": 6074,
      "Ġbrows": 6075,
      "raid": 6076,
      "Ġliber": 6077,
      "Ġmeat": 6078,
      "ĠSteve": 6079,
      "OK": 6080,
      "Ġbelief": 6081,
      "Ġsupporting": 6082,
      "ĠMedical": 6083,
      "Ġdetailed": 6084,
      "Ġgrown": 6085,
      "ario": 6086,
      "ĠSally": 6087,
      "Ġlad": 6088,
      "ĠCat": 6089,
      "ĠID": 6090,
      "Ġsinging": 6091,
      "Ġdiscount": 6092,
      "ricane": 6093,
      "hew": 6094,
      "ĠFurther": 6095,
      "Ġprepare": 6096,
      "ĠLibr": 6097,
      "net": 6098,
      "Ġaccounts": 6099,
      "ĠItalian": 6100,
      "Ġupper": 6101,
      "Ġcontrast": 6102,
      "ĠCorpor": 6103,
      "48": 6104,
      "Oh": 6105,
      "Ġauthority": 6106,
      "Ġpushed": 6107,
      "with": 6108,
      "Ġowned": 6109,
      "bing": 6110,
      "ĠThough": 6111,
      "Ġportion": 6112,
      "Ġchosen": 6113,
      "pass": 6114,
      "Ġbat": 6115,
      "ped": 6116,
      "appy": 6117,
      "ĠAT": 6118,
      "ĠMic": 6119,
      "Ġfactor": 6120,
      "ĠReport": 6121,
      "och": 6122,
      "Ġpromised": 6123,
      "ĠYoung": 6124,
      "LC": 6125,
      "sen": 6126,
      "Ġtopic": 6127,
      "Ġvaluable": 6128,
      "ĠAuthor": 6129,
      "Ġenhance": 6130,
      "Ġrow": 6131,
      "equ": 6132,
      "ĠCy": 6133,
      "arrow": 6134,
      "Ġindustrial": 6135,
      "Ġ1990": 6136,
      "ĠMaster": 6137,
      "iser": 6138,
      "Ġwindows": 6139,
      "Ġ75": 6140,
      "Ġguest": 6141,
      "Ġunable": 6142,
      "Ġrac": 6143,
      "Ġholds": 6144,
      "uts": 6145,
      "Ġrealize": 6146,
      "hetic": 6147,
      "fection": 6148,
      "Ġlegs": 6149,
      "OP": 6150,
      "ĠTem": 6151,
      "Ġinstit": 6152,
      "hi": 6153,
      "Ġsymbol": 6154,
      "âĢľ": 6155,
      "aren": 6156,
      "There": 6157,
      "ĠWilliams": 6158,
      "Ġcounty": 6159,
      "Ġsuc": 6160,
      "ĠHuman": 6161,
      "Ġconsumers": 6162,
      "awn": 6163,
      "Ġforever": 6164,
      "Ġresol": 6165,
      "isa": 6166,
      "Ġdepending": 6167,
      "ĠFollowing": 6168,
      "ossible": 6169,
      "Ġclaimed": 6170,
      "Ġconducted": 6171,
      "Ġsharp": 6172,
      "Ġbottle": 6173,
      "Ġfields": 6174,
      "nding": 6175,
      "ĠScot": 6176,
      "ĠLab": 6177,
      "wl": 6178,
      "Ġtotally": 6179,
      "Ġestimated": 6180,
      "77": 6181,
      "ĠSus": 6182,
      "Ġentirely": 6183,
      "Ġinches": 6184,
      "eder": 6185,
      "Ġmut": 6186,
      "Ġdiam": 6187,
      "Ġwaved": 6188,
      "Ġtests": 6189,
      "Ġancient": 6190,
      "lets": 6191,
      "Ġempt": 6192,
      "ĠNetwork": 6193,
      "ĠNote": 6194,
      "Ġchain": 6195,
      "Ġpoly": 6196,
      "Ġpump": 6197,
      "Ġ1999": 6198,
      "Ġworldwide": 6199,
      "mosp": 6200,
      "Ġwebsites": 6201,
      "rad": 6202,
      "bu": 6203,
      "ĠLim": 6204,
      "orough": 6205,
      "ĠWatch": 6206,
      "erg": 6207,
      "ĠMS": 6208,
      "Ġworse": 6209,
      "ĠParis": 6210,
      "ris": 6211,
      "aisy": 6212,
      "oman": 6213,
      "mond": 6214,
      "Ġdatab": 6215,
      "ĠFull": 6216,
      "Ġpure": 6217,
      "Ġmedicine": 6218,
      "onna": 6219,
      "claim": 6220,
      "Ġplanet": 6221,
      "49": 6222,
      "Wow": 6223,
      "Ġhundreds": 6224,
      "Ġgro": 6225,
      "Ġwheel": 6226,
      "iveness": 6227,
      "Ġspeaking": 6228,
      "Ġbathroom": 6229,
      "Ġmeal": 6230,
      "Ġeffic": 6231,
      "ĠPenn": 6232,
      "Ġhappening": 6233,
      "Ġmenu": 6234,
      "Ġec": 6235,
      "Ġjew": 6236,
      "ĠGeorg": 6237,
      "elines": 6238,
      "Ġperman": 6239,
      "osoph": 6240,
      "ĠWord": 6241,
      "Ġunivers": 6242,
      "Ġliqu": 6243,
      "ĠIndust": 6244,
      "Ġ48": 6245,
      "liam": 6246,
      "ician": 6247,
      "Ġanx": 6248,
      "ĠConference": 6249,
      "vell": 6250,
      "Ġlights": 6251,
      "xy": 6252,
      "Ġsignificantly": 6253,
      "lo": 6254,
      "Ġmode": 6255,
      "Ġcompetitive": 6256,
      "can": 6257,
      "ĠCas": 6258,
      "**": 6259,
      "Ġdrugs": 6260,
      "ĠRussia": 6261,
      "Ġhousing": 6262,
      "Ġmotion": 6263,
      "ĠCarolina": 6264,
      "Ġdelay": 6265,
      "Ġcorn": 6266,
      "Ġgrateful": 6267,
      "ingu": 6268,
      "Ġ!": 6269,
      "Ġteen": 6270,
      "Ġneighborhood": 6271,
      "ĠTechnology": 6272,
      "Ġreceiving": 6273,
      "Ġreform": 6274,
      "ĠLead": 6275,
      "Ġmoments": 6276,
      "Ġwarn": 6277,
      "Ġrevenue": 6278,
      "Ġnone": 6279,
      "umin": 6280,
      "ĠProte": 6281,
      "Ġsucceed": 6282,
      "ĠGra": 6283,
      "oured": 6284,
      "39": 6285,
      "ulf": 6286,
      "Ġterror": 6287,
      "rehensive": 6288,
      "ĠMiddle": 6289,
      "osite": 6290,
      "ĠCross": 6291,
      "fall": 6292,
      "Ġedition": 6293,
      "Ġtomorrow": 6294,
      "ĠLive": 6295,
      "ogether": 6296,
      "Ġinvolve": 6297,
      "ĠCre": 6298,
      "ĠSet": 6299,
      "Ġhighlight": 6300,
      "ĠBi": 6301,
      "Ġchicken": 6302,
      "ĠAdv": 6303,
      "Ġafraid": 6304,
      "Ġemployee": 6305,
      "opping": 6306,
      "Ġlosing": 6307,
      "Ġshooting": 6308,
      "Ġdebut": 6309,
      "Ġadvertising": 6310,
      "Ġdistinct": 6311,
      "ĠInvest": 6312,
      "Ġvary": 6313,
      "Ġorganized": 6314,
      "Ġforth": 6315,
      "ĠKingdom": 6316,
      "ĠHarr": 6317,
      "ensity": 6318,
      "ĠFort": 6319,
      "ĠFederal": 6320,
      "Ġtracks": 6321,
      "Ġcrime": 6322,
      "OC": 6323,
      "Ġarmy": 6324,
      "Ġadministr": 6325,
      "Ġpig": 6326,
      "Ġbranch": 6327,
      "Ġwithd": 6328,
      "liament": 6329,
      "Ġsam": 6330,
      "Ġhistorical": 6331,
      "ĠHistory": 6332,
      "Ġbench": 6333,
      "Ġinvestigation": 6334,
      "Ġscientific": 6335,
      "Ġobtain": 6336,
      "cont": 6337,
      "ingly": 6338,
      "ĠOrig": 6339,
      "Ġfrequently": 6340,
      "ala": 6341,
      "DF": 6342,
      "writ": 6343,
      "ache": 6344,
      "Ġsurgery": 6345,
      "Ġprotected": 6346,
      "Ġcrisis": 6347,
      "Ġdistribution": 6348,
      "Ġphotograph": 6349,
      "ournament": 6350,
      "Ġven": 6351,
      "Ġfrog": 6352,
      "Ġtower": 6353,
      "Ġtreated": 6354,
      "Ġdish": 6355,
      "Ġinitially": 6356,
      "ĠAcademy": 6357,
      "ĠGirl": 6358,
      "adium": 6359,
      "Ġsilver": 6360,
      "Ġsole": 6361,
      "Ġwave": 6362,
      "ĠColumb": 6363,
      "teen": 6364,
      "flow": 6365,
      "rastructure": 6366,
      "Ġincredible": 6367,
      "Ġcontest": 6368,
      "Ġchose": 6369,
      "Ġped": 6370,
      "ĠVan": 6371,
      "Ġhousehold": 6372,
      "Ġadvoc": 6373,
      "Ġturning": 6374,
      "ĠFund": 6375,
      "Ġchat": 6376,
      "Ġhonor": 6377,
      "Ġupdated": 6378,
      "Ġfra": 6379,
      "Ġpainting": 6380,
      "ĠDid": 6381,
      "sembly": 6382,
      "Ġconsumer": 6383,
      "Ġhungry": 6384,
      "ĠPen": 6385,
      "Ġperspective": 6386,
      "ĠIra": 6387,
      "Ġpurchased": 6388,
      "31": 6389,
      "anges": 6390,
      "Ġletters": 6391,
      "cell": 6392,
      "Ġprocessing": 6393,
      "eddy": 6394,
      "ĠAud": 6395,
      "Ġsubstant": 6396,
      "Ġrein": 6397,
      "Ġrecognized": 6398,
      "ĠPacific": 6399,
      "respond": 6400,
      "reens": 6401,
      "Ġpaying": 6402,
      "gas": 6403,
      "Ġlucky": 6404,
      "igration": 6405,
      "Ġcategory": 6406,
      "Ġsight": 6407,
      "Ġpointed": 6408,
      "col": 6409,
      "Ġeffectively": 6410,
      "Ġstood": 6411,
      "IF": 6412,
      "ĠHor": 6413,
      "which": 6414,
      "Re": 6415,
      "Ġfellow": 6416,
      "SA": 6417,
      "OD": 6418,
      "apped": 6419,
      "UT": 6420,
      "rick": 6421,
      "Ġjack": 6422,
      "ĠDaniel": 6423,
      "ĠArab": 6424,
      "ĠKim": 6425,
      "ĠArts": 6426,
      "Ġbutterfly": 6427,
      "Ġeducational": 6428,
      "May": 6429,
      "ĠSenate": 6430,
      "ĠNOT": 6431,
      "ĠÐ": 6432,
      "Ġ38": 6433,
      "Ġspoke": 6434,
      "ĠYOU": 6435,
      "oga": 6436,
      "ĠExt": 6437,
      "Ġcomponents": 6438,
      "Ġtrading": 6439,
      "ĠForce": 6440,
      "Ġ34": 6441,
      "Ġmatters": 6442,
      "Ġwid": 6443,
      "pes": 6444,
      "Ġfabric": 6445,
      "ĠSpring": 6446,
      "Ġexamples": 6447,
      "Ġinstalled": 6448,
      "Ġbreakfast": 6449,
      "Ġawesome": 6450,
      "Ġmassive": 6451,
      "ĠNE": 6452,
      "Ġfaces": 6453,
      "anche": 6454,
      "hand": 6455,
      "Ġcharged": 6456,
      "Ġemotional": 6457,
      "agram": 6458,
      "Ġequal": 6459,
      "Ġwinner": 6460,
      "Ġboost": 6461,
      "Ġconver": 6462,
      "iano": 6463,
      "ĠRose": 6464,
      "Ġbreast": 6465,
      "Ġaudio": 6466,
      "ĠHard": 6467,
      "Ġcommittee": 6468,
      "Ġgoods": 6469,
      "Ġscary": 6470,
      "erves": 6471,
      "Ġserver": 6472,
      "Ġunlike": 6473,
      "Ġ<": 6474,
      "Ġgiant": 6475,
      "Ġhook": 6476,
      "oty": 6477,
      "rot": 6478,
      "rig": 6479,
      "Ġcommitment": 6480,
      "uting": 6481,
      "Ġending": 6482,
      "Ġstrategies": 6483,
      "ĠDoes": 6484,
      "eler": 6485,
      "Ġfigures": 6486,
      "Ġast": 6487,
      "ibilities": 6488,
      "PR": 6489,
      "Ġsmell": 6490,
      "host": 6491,
      "Ġunderst": 6492,
      "ua": 6493,
      "weet": 6494,
      "Ġguns": 6495,
      "ĠEp": 6496,
      "cknow": 6497,
      "ĠBritain": 6498,
      "Ġnative": 6499,
      "Ġusual": 6500,
      "wing": 6501,
      "ĠBrand": 6502,
      "Ġmere": 6503,
      "ĠTru": 6504,
      "Ġsurrounding": 6505,
      "Ġhall": 6506,
      "ĠSoon": 6507,
      "ĠGall": 6508,
      "ĠMean": 6509,
      "orters": 6510,
      "Ġhopped": 6511,
      "Ġcooking": 6512,
      "nergy": 6513,
      "Ġrecipe": 6514,
      "utch": 6515,
      "My": 6516,
      "Ġtherapy": 6517,
      "66": 6518,
      "Ġillustr": 6519,
      "Ġthin": 6520,
      "related": 6521,
      "Ġterrit": 6522,
      "Ġremote": 6523,
      "icket": 6524,
      "ugh": 6525,
      "Ġreferred": 6526,
      "Ġdim": 6527,
      "Ġjuice": 6528,
      "ĠTit": 6529,
      "Ġlux": 6530,
      "Ġidentity": 6531,
      "ĠIre": 6532,
      "Ġparticipants": 6533,
      "Ġfunctions": 6534,
      "Ġodd": 6535,
      "Ġimagine": 6536,
      "Ġdoors": 6537,
      "bow": 6538,
      "eding": 6539,
      "Ġpill": 6540,
      "ulty": 6541,
      "Ġparticipate": 6542,
      "Ġfantastic": 6543,
      "Ġatmosp": 6544,
      "ĠFestival": 6545,
      "Ġtables": 6546,
      "oons": 6547,
      "ĠDownload": 6548,
      "Ġsuffe": 6549,
      "gypt": 6550,
      "Ġperfectly": 6551,
      "Ġelev": 6552,
      "Ġconsidering": 6553,
      "Ġplane": 6554,
      "Ġreliable": 6555,
      "gend": 6556,
      "ĠRoman": 6557,
      "ĠWalk": 6558,
      "Ġchoices": 6559,
      "Ġclosely": 6560,
      "Ġbroadcast": 6561,
      "ĠUsing": 6562,
      "Ġsouthern": 6563,
      "Ġpocket": 6564,
      "ĠHand": 6565,
      "Ġorange": 6566,
      "Ġscenes": 6567,
      "Ġreput": 6568,
      "Ġyesterday": 6569,
      "ĠiPhone": 6570,
      "uffy": 6571,
      "Ġpassing": 6572,
      "Ġlicense": 6573,
      "Ġru": 6574,
      "Ġresc": 6575,
      "Ġscheduled": 6576,
      "eah": 6577,
      "ĠSouthern": 6578,
      "Ġplot": 6579,
      "do": 6580,
      "acle": 6581,
      "Ġtickets": 6582,
      "Ġpm": 6583,
      "Ġcolumn": 6584,
      "Ġconfirmed": 6585,
      "ulous": 6586,
      "leep": 6587,
      "LA": 6588,
      "Ġprompt": 6589,
      "icit": 6590,
      "hors": 6591,
      "Ġparking": 6592,
      "stone": 6593,
      "Ġcircumstances": 6594,
      "Ġcycl": 6595,
      "Ġcutting": 6596,
      "ĠFair": 6597,
      "ĠContin": 6598,
      "Ġ1998": 6599,
      "CE": 6600,
      "ĠCome": 6601,
      "ĠChildren": 6602,
      "Ġunus": 6603,
      "Ġyounger": 6604,
      "Ġultimately": 6605,
      "Ġregularly": 6606,
      "inem": 6607,
      "heast": 6608,
      "Ġexcess": 6609,
      "ĠInte": 6610,
      "ĠGames": 6611,
      "Ġregistered": 6612,
      "ĠIraq": 6613,
      "ĠAndrew": 6614,
      "Ġsan": 6615,
      "Ġrecovery": 6616,
      "Ġpractical": 6617,
      "Ġenthus": 6618,
      "Ġcute": 6619,
      "Ġdrove": 6620,
      "Ġfinds": 6621,
      "ĠJun": 6622,
      "Ġdivision": 6623,
      "Ġprotein": 6624,
      "gent": 6625,
      "Ġdram": 6626,
      "ĠNever": 6627,
      "Ġworksh": 6628,
      "Ġsyn": 6629,
      "ĠAsia": 6630,
      "ilit": 6631,
      "rete": 6632,
      "Ġgod": 6633,
      "Ġfurniture": 6634,
      "ĠSupport": 6635,
      "Ġsurf": 6636,
      "Ġnegoti": 6637,
      "ĠDom": 6638,
      "Ġcampus": 6639,
      "Ġfeaturing": 6640,
      "pret": 6641,
      "Ġdomestic": 6642,
      "UN": 6643,
      "Ġwise": 6644,
      "pot": 6645,
      "Ġfoods": 6646,
      "alle": 6647,
      "rible": 6648,
      "Ġhttps": 6649,
      "essed": 6650,
      "ĠAri": 6651,
      "Ġrose": 6652,
      "Ġstretch": 6653,
      "Ġputs": 6654,
      "ĠIsl": 6655,
      "ĠAwards": 6656,
      "ĠAdminist": 6657,
      "Ġplug": 6658,
      "TC": 6659,
      "Ġauthorities": 6660,
      "Ġclinical": 6661,
      "ĠMrs": 6662,
      "rell": 6663,
      "Ġpit": 6664,
      "ĠHolly": 6665,
      "Ġcandidate": 6666,
      "Ġ37": 6667,
      "icted": 6668,
      "ĠAD": 6669,
      "ran": 6670,
      "Ġthrew": 6671,
      "ĠDaisy": 6672,
      "rome": 6673,
      "Ġinvited": 6674,
      "ancer": 6675,
      "Ġvisited": 6676,
      "Ġlatter": 6677,
      "Ġtag": 6678,
      "Ġtroops": 6679,
      "ora": 6680,
      "ĠCH": 6681,
      "Ġapps": 6682,
      "Ġcrack": 6683,
      "ĠSea": 6684,
      "Ġnose": 6685,
      "ĠLink": 6686,
      "Ġbodies": 6687,
      "Ġappeal": 6688,
      "Ġdefined": 6689,
      "Ġexpans": 6690,
      "Ġacknow": 6691,
      "Ġcriminal": 6692,
      "Ġreward": 6693,
      "Ġacid": 6694,
      "ĠWel": 6695,
      "Ġwoods": 6696,
      "Ġtechnologies": 6697,
      "ĠIP": 6698,
      "urning": 6699,
      "onic": 6700,
      "Ġhoped": 6701,
      "Ġlistened": 6702,
      "Ġmatches": 6703,
      "47": 6704,
      "ĠRepublican": 6705,
      "ĠEconom": 6706,
      "Ġswimming": 6707,
      "ez": 6708,
      "Ġnob": 6709,
      "ĠMill": 6710,
      "Ġprovider": 6711,
      "estyle": 6712,
      "Sh": 6713,
      "Ġregional": 6714,
      "ĠGlobal": 6715,
      "Ġoccurred": 6716,
      "Ġescape": 6717,
      "Ġ1980": 6718,
      "Ġdrawing": 6719,
      "Ġhidden": 6720,
      ".âĢĻ": 6721,
      "AG": 6722,
      "Ġeggs": 6723,
      "bury": 6724,
      "ĠFox": 6725,
      "omy": 6726,
      "phy": 6727,
      "ĠCentre": 6728,
      "46": 6729,
      "ĠKn": 6730,
      "ĠOhio": 6731,
      "ĠStan": 6732,
      "Ġregister": 6733,
      "Ġlargely": 6734,
      "Ġnurs": 6735,
      "Ġworst": 6736,
      "Ġelectronic": 6737,
      "nam": 6738,
      "Ġresulting": 6739,
      "Ġmad": 6740,
      "ĠKnow": 6741,
      "Ġgrade": 6742,
      "ĠDar": 6743,
      "ĠEgypt": 6744,
      "Ġrenew": 6745,
      "Ġincident": 6746,
      "berry": 6747,
      "Ġattended": 6748,
      "Ġawarded": 6749,
      "weight": 6750,
      "ĠAgain": 6751,
      "Ġimpressive": 6752,
      "oster": 6753,
      "ta": 6754,
      "ĠDVD": 6755,
      "Ġdepth": 6756,
      "Ġtwenty": 6757,
      "Ġathlet": 6758,
      "ĠLibrary": 6759,
      "ĠVideo": 6760,
      "Ġagencies": 6761,
      "Ġchannel": 6762,
      "ĠAsh": 6763,
      "Ġcandidates": 6764,
      "Ġ33": 6765,
      "Ġspiritual": 6766,
      "Ġmuseum": 6767,
      "Ġocean": 6768,
      "ĠHon": 6769,
      "ĠBenny": 6770,
      "ĠLog": 6771,
      "ĠCook": 6772,
      "Ġconfirm": 6773,
      "ĠKey": 6774,
      "Ġtypical": 6775,
      "Ġwriters": 6776,
      "Ġanswers": 6777,
      "Ġpleased": 6778,
      "Ġalcohol": 6779,
      "ĠCatholic": 6780,
      "rage": 6781,
      "ĠCoast": 6782,
      "Ġacting": 6783,
      "inder": 6784,
      "Ġcovers": 6785,
      "SP": 6786,
      "igr": 6787,
      "ĠON": 6788,
      "Ġfifth": 6789,
      "Ġmainly": 6790,
      "ĠCarl": 6791,
      "ĠGar": 6792,
      "Ġsuccessfully": 6793,
      "ĠHD": 6794,
      "ĠNight": 6795,
      "Ġsample": 6796,
      "oned": 6797,
      "Ġcollected": 6798,
      "ĠRay": 6799,
      "ĠSports": 6800,
      "Ġhang": 6801,
      "Ġkeeps": 6802,
      "ĠKent": 6803,
      "add": 6804,
      "Ġerror": 6805,
      "Ġdebate": 6806,
      "Ġsaved": 6807,
      "ĠPlus": 6808,
      "Hello": 6809,
      "greg": 6810,
      "Ġcrazy": 6811,
      "!)": 6812,
      "Ġinstitutions": 6813,
      "ba": 6814,
      "Ġsimpl": 6815,
      "vy": 6816,
      "ansas": 6817,
      "Ġretire": 6818,
      "Ġempty": 6819,
      "Ġstands": 6820,
      "ĠJac": 6821,
      "merce": 6822,
      "Ġheight": 6823,
      "ĠAR": 6824,
      "Ġwaited": 6825,
      "Ġhits": 6826,
      "Ġspr": 6827,
      "amber": 6828,
      "Ġlie": 6829,
      "rovers": 6830,
      "ras": 6831,
      "And": 6832,
      "Ġfeelings": 6833,
      "ĠJewish": 6834,
      "Ġflag": 6835,
      "aves": 6836,
      "ployment": 6837,
      "ĠCreat": 6838,
      "edia": 6839,
      "ĠCost": 6840,
      "abled": 6841,
      "Ġreturns": 6842,
      "ĠHotel": 6843,
      "ĠAndroid": 6844,
      "Ġsessions": 6845,
      "Ġfeedback": 6846,
      "Ġtank": 6847,
      "ĠYet": 6848,
      "ĠRight": 6849,
      "Ġcycle": 6850,
      "Ġvisiting": 6851,
      "arters": 6852,
      "worth": 6853,
      "irrel": 6854,
      "Ġsuitable": 6855,
      "ĠItaly": 6856,
      "Ġdescription": 6857,
      "Ġrelief": 6858,
      "ĠBal": 6859,
      "ĠIran": 6860,
      "Ġobvious": 6861,
      "ĠHaving": 6862,
      "iors": 6863,
      "ĠCa": 6864,
      "Ġpolitics": 6865,
      "Ġwidely": 6866,
      "ignment": 6867,
      "Ġsusp": 6868,
      "ĠÂ©": 6869,
      "Ġnorthern": 6870,
      "ĠPoint": 6871,
      "lock": 6872,
      "Ġcontemporary": 6873,
      "ĠPass": 6874,
      "Ġemployment": 6875,
      "Ġheads": 6876,
      "enth": 6877,
      "Ġvari": 6878,
      "enger": 6879,
      "uls": 6880,
      "Ġtropical": 6881,
      "Ġentr": 6882,
      "Ġmagical": 6883,
      "Ġengineering": 6884,
      "Ġsuffered": 6885,
      "ĠAff": 6886,
      "ĠNC": 6887,
      "Ġtrend": 6888,
      "ĠExec": 6889,
      "Ġeld": 6890,
      "ĠFrancisco": 6891,
      "zil": 6892,
      "Ġtopics": 6893,
      "ĠRest": 6894,
      "Ġcarbon": 6895,
      "Ġcorrespond": 6896,
      "Ġexpressed": 6897,
      "ĠMolly": 6898,
      "Ġupdates": 6899,
      "ĠJoseph": 6900,
      "Ġcomprehensive": 6901,
      "Ġfulf": 6902,
      "ĠÂ·": 6903,
      "ĠZeal": 6904,
      "ĠCro": 6905,
      "Ġshares": 6906,
      "Ġprimarily": 6907,
      "zer": 6908,
      "Ġdecade": 6909,
      "Ġnuclear": 6910,
      "Ġaccurate": 6911,
      "Ġextract": 6912,
      "asters": 6913,
      "ĠQueen": 6914,
      "Ġwhenever": 6915,
      "ĠSup": 6916,
      "Ġinstallation": 6917,
      "Ġcapable": 6918,
      "igg": 6919,
      "ĠTrust": 6920,
      "BI": 6921,
      "Ġ400": 6922,
      "ĠPot": 6923,
      "Ġborder": 6924,
      "hent": 6925,
      "Ġtor": 6926,
      "Ġmeetings": 6927,
      "Ġlion": 6928,
      "ĠTay": 6929,
      "Ġimpossible": 6930,
      "Ġtalent": 6931,
      "Ġinstrument": 6932,
      "Ġrelie": 6933,
      "01": 6934,
      "bridge": 6935,
      "Ġdrivers": 6936,
      "Ġchapter": 6937,
      "agues": 6938,
      "Ġpatterns": 6939,
      "ĠFar": 6940,
      "ĠHospital": 6941,
      "Ġsuggests": 6942,
      "Ġille": 6943,
      "Ġobserved": 6944,
      "ĠWrit": 6945,
      "Ġrand": 6946,
      "cluding": 6947,
      "inent": 6948,
      "VID": 6949,
      "Ġresource": 6950,
      "Ġtrick": 6951,
      "Ġticket": 6952,
      "Ġscholars": 6953,
      "Ġpapers": 6954,
      "Ġabuse": 6955,
      "otes": 6956,
      ":||": 6957,
      "Ġregul": 6958,
      "ylv": 6959,
      "ĠPrem": 6960,
      "Ġengage": 6961,
      "ĠEnergy": 6962,
      "Ġautomatically": 6963,
      ".'": 6964,
      "rum": 6965,
      "Ġinnovative": 6966,
      "Ġmoves": 6967,
      "98": 6968,
      "Ġsoldiers": 6969,
      "aid": 6970,
      "Ġinfrastructure": 6971,
      "Ġdegrees": 6972,
      "Ġoutdoor": 6973,
      "umps": 6974,
      "Ġbes": 6975,
      "Ġsplit": 6976,
      "Ġprepar": 6977,
      "Ġindeed": 6978,
      "Ġoven": 6979,
      "Ġattrib": 6980,
      "Do": 6981,
      "Ġprocedure": 6982,
      "Ġinvestors": 6983,
      "umes": 6984,
      "Ġentertainment": 6985,
      "ĠMP": 6986,
      "ĠBon": 6987,
      "Ġ55": 6988,
      "ĠAp": 6989,
      "anes": 6990,
      "ĠEvent": 6991,
      "Ġhabit": 6992,
      "05": 6993,
      "Ġconstantly": 6994,
      "Ġinstructions": 6995,
      "rid": 6996,
      "eller": 6997,
      "Ġweapons": 6998,
      "Ġpitch": 6999,
      "prene": 7000,
      "ĠIreland": 7001,
      "irms": 7002,
      "ĠDisc": 7003,
      "ĠPack": 7004,
      "ĠUnf": 7005,
      "ĠSat": 7006,
      "Ġdiscussed": 7007,
      "Ġcarrying": 7008,
      "Ġexploring": 7009,
      "abet": 7010,
      "Ġsauce": 7011,
      "Ġunderstood": 7012,
      "Ġresearchers": 7013,
      "Ġunknown": 7014,
      "Ġmessages": 7015,
      "bal": 7016,
      "Ġurban": 7017,
      "itutional": 7018,
      "ĠDigital": 7019,
      "Ġinfect": 7020,
      "Ġelig": 7021,
      "Ġwra": 7022,
      "Ġupset": 7023,
      "Ġbite": 7024,
      "Ġwarrant": 7025,
      "96": 7026,
      "Ġfal": 7027,
      "Ġmarked": 7028,
      "ĠPop": 7029,
      "ĠOk": 7030,
      "Ġphase": 7031,
      "ĠZealand": 7032,
      "Ġcoal": 7033,
      "Ġpublish": 7034,
      "Ġ2021": 7035,
      "Ġtack": 7036,
      "Ġbrands": 7037,
      "Ġpossibility": 7038,
      "ĠDie": 7039,
      "ĠLow": 7040,
      "Ġdirty": 7041,
      "As": 7042,
      "Ġ1997": 7043,
      "Ġwestern": 7044,
      "Ġfacing": 7045,
      "Ġwash": 7046,
      "Ġsilly": 7047,
      "ĠStill": 7048,
      "Ġfounded": 7049,
      "Ġoutput": 7050,
      "ĠLo": 7051,
      "ampion": 7052,
      "Ġassets": 7053,
      "TH": 7054,
      "Ġdifferences": 7055,
      "Ġsupplies": 7056,
      "They": 7057,
      "adel": 7058,
      "inton": 7059,
      "Ġstepped": 7060,
      "ĠPage": 7061,
      "li": 7062,
      "reprene": 7063,
      "oral": 7064,
      "Ġmal": 7065,
      "Ġmonit": 7066,
      "Ġlistening": 7067,
      "cers": 7068,
      "Ġjustice": 7069,
      "Ġexpression": 7070,
      "Ġcapture": 7071,
      "Ġdeck": 7072,
      "Ġvital": 7073,
      "Ġcausing": 7074,
      "ĠBrad": 7075,
      "Ġdeals": 7076,
      "ani": 7077,
      "ĠTherefore": 7078,
      "ĠMir": 7079,
      "Ġreject": 7080,
      "Ġnarr": 7081,
      "Ġcoat": 7082,
      "lastname": 7083,
      "Ġrandom": 7084,
      "Ġobjects": 7085,
      "Ġconfig": 7086,
      "Ġproviders": 7087,
      "ĠMuslim": 7088,
      "Ġmanufacturing": 7089,
      "ĠEqu": 7090,
      "Ġflash": 7091,
      "Ġrepeated": 7092,
      "ĠJustice": 7093,
      "iana": 7094,
      "owntown": 7095,
      "stein": 7096,
      "Ġcolorful": 7097,
      "ĠAccess": 7098,
      "print": 7099,
      "orders": 7100,
      "Ġfro": 7101,
      "Ġappreciate": 7102,
      "Ġroutine": 7103,
      "Ġclimbed": 7104,
      "ĠJimmy": 7105,
      "ĠRam": 7106,
      "Ġbrill": 7107,
      "Ġenable": 7108,
      "ĠInn": 7109,
      "Ġrestaurants": 7110,
      "ura": 7111,
      "sters": 7112,
      "Ġrating": 7113,
      "ĠCA": 7114,
      "ĠEs": 7115,
      "va": 7116,
      "Ġcelebrate": 7117,
      "Ġsoil": 7118,
      "Ġfavourite": 7119,
      "Ġcolon": 7120,
      "GB": 7121,
      "Ġaffili": 7122,
      "Ġenforce": 7123,
      "ĠThus": 7124,
      "ĠHarry": 7125,
      "Ġelected": 7126,
      "Ġtap": 7127,
      "ĠCapt": 7128,
      "Ġsquirrel": 7129,
      "ĠIII": 7130,
      "Ġachieved": 7131,
      "Ġserves": 7132,
      "Ġhumans": 7133,
      "ĠHa": 7134,
      "stream": 7135,
      "ĠLind": 7136,
      "Ġ1970": 7137,
      "ĠKat": 7138,
      "Ġpuppy": 7139,
      "ĠManager": 7140,
      "inson": 7141,
      "Ġ150": 7142,
      "oir": 7143,
      "85": 7144,
      "Ġwings": 7145,
      "Ġbomb": 7146,
      "Ġexpertise": 7147,
      "Ġstring": 7148,
      "Ġchest": 7149,
      "Ġversions": 7150,
      "ĠSoft": 7151,
      "Ġera": 7152,
      "Ġmonthly": 7153,
      "Ġdestroyed": 7154,
      "Ġdates": 7155,
      "Ġcandy": 7156,
      "ĠSP": 7157,
      "Ġtries": 7158,
      "orable": 7159,
      "orses": 7160,
      "ĠDC": 7161,
      "Ġcouncil": 7162,
      "ĠTurn": 7163,
      "ĠNavy": 7164,
      "xture": 7165,
      "ĠPosted": 7166,
      "Ġgolf": 7167,
      "rich": 7168,
      "urb": 7169,
      "Ġtiss": 7170,
      "ĠGeorgia": 7171,
      "ĠPlace": 7172,
      "Ġattorney": 7173,
      "Ġinput": 7174,
      "emic": 7175,
      "Ġbare": 7176,
      "Ġresolution": 7177,
      "ĠHelp": 7178,
      "ĠRyan": 7179,
      "ĠUlt": 7180,
      "ĠQuest": 7181,
      "ĠUt": 7182,
      "Ġauthors": 7183,
      "Ġrisks": 7184,
      "TV": 7185,
      "Ġsituations": 7186,
      "Ġcompens": 7187,
      "lyn": 7188,
      "Ġboss": 7189,
      "Ġadvis": 7190,
      "ĠPrice": 7191,
      "ĠWhich": 7192,
      "Ġairport": 7193,
      "Ġinterior": 7194,
      "Ġstrike": 7195,
      "ht": 7196,
      "ĠJill": 7197,
      "comm": 7198,
      "ĠKar": 7199,
      "ographic": 7200,
      "Ġsmiles": 7201,
      "ĠLeg": 7202,
      "Ġsettings": 7203,
      "ĠBattle": 7204,
      "ĠLiber": 7205,
      "Ġincreases": 7206,
      "Ġappointed": 7207,
      "ĠSir": 7208,
      "Ġdomin": 7209,
      "ĠNick": 7210,
      "angers": 7211,
      "pat": 7212,
      "Ġagents": 7213,
      "oosing": 7214,
      "Ġupcoming": 7215,
      "etime": 7216,
      "ĠLearn": 7217,
      "ca": 7218,
      "ĠSn": 7219,
      "Ġcalm": 7220,
      "Ġvul": 7221,
      "Ġprocedures": 7222,
      "Ġlaid": 7223,
      "Ġnarrow": 7224,
      "ĠSecretary": 7225,
      "Ġdatabase": 7226,
      "Ã¼": 7227,
      "ĠSearch": 7228,
      "ĠCe": 7229,
      "Ġrear": 7230,
      "Ġrefused": 7231,
      "Ġguarantee": 7232,
      "oking": 7233,
      "Ġsufficient": 7234,
      "mary": 7235,
      "Ġprove": 7236,
      "ogen": 7237,
      "Ġstreets": 7238,
      "Ġalongside": 7239,
      "ipal": 7240,
      "MA": 7241,
      "ĠFoot": 7242,
      "Ġobtained": 7243,
      "ĠPo": 7244,
      "ĠSanta": 7245,
      "Ġreasonable": 7246,
      "Ġtransition": 7247,
      "Ġattached": 7248,
      "ĠHope": 7249,
      "Ġprofit": 7250,
      "Ġhoping": 7251,
      "ĠOR": 7252,
      "Ġmonster": 7253,
      "Ġpresentation": 7254,
      "Ġroles": 7255,
      "ĠHun": 7256,
      "aws": 7257,
      "MP": 7258,
      "ĠWH": 7259,
      "ĠRa": 7260,
      "Ġbanks": 7261,
      "itage": 7262,
      "Ã³": 7263,
      "Ġcontrovers": 7264,
      "Ġ1996": 7265,
      "TA": 7266,
      "Ġvast": 7267,
      "EE": 7268,
      "Ġtie": 7269,
      "ikes": 7270,
      "Ġsupports": 7271,
      "ĠAvenue": 7272,
      "inity": 7273,
      "Ġ65": 7274,
      "Why": 7275,
      "Ġdust": 7276,
      "Ġresistance": 7277,
      "ĠLt": 7278,
      "Ġicon": 7279,
      "Ġheaded": 7280,
      "Ġtrig": 7281,
      "Ġskill": 7282,
      "Ġoperate": 7283,
      "Ġhoney": 7284,
      "Ġcooper": 7285,
      "Ġperforming": 7286,
      "Ġmachines": 7287,
      "97": 7288,
      "Ġorganic": 7289,
      "Ġlegislation": 7290,
      "ĠCode": 7291,
      "aven": 7292,
      "Ġregulations": 7293,
      "ĠRod": 7294,
      "utor": 7295,
      "onym": 7296,
      "Ġshapes": 7297,
      "Ġseriously": 7298,
      "??": 7299,
      "ĠFriend": 7300,
      "ĠMult": 7301,
      "Ġfinger": 7302,
      "ĠNon": 7303,
      "Ġfacts": 7304,
      "Ġfolks": 7305,
      "ĠConf": 7306,
      "wich": 7307,
      "Ġproducer": 7308,
      "ĠFre": 7309,
      "Ġaband": 7310,
      "list": 7311,
      "Ġrul": 7312,
      "Ġvirtual": 7313,
      "Ġmic": 7314,
      "Ġacts": 7315,
      "Ġcow": 7316,
      "Ġgate": 7317,
      "Ġthread": 7318,
      "Cl": 7319,
      "ĠOrder": 7320,
      "CA": 7321,
      "ĠUpd": 7322,
      "Ġinch": 7323,
      "Ġspaces": 7324,
      "izza": 7325,
      "Ġhate": 7326,
      "ĠControl": 7327,
      "Ġstim": 7328,
      "iments": 7329,
      "Ġnormally": 7330,
      "SS": 7331,
      "bi": 7332,
      "Ġfoundation": 7333,
      "Ġinjuries": 7334,
      "Ġchallenging": 7335,
      "Ġnewspaper": 7336,
      "ressed": 7337,
      "ington": 7338,
      "ĠBru": 7339,
      "Ġstruggle": 7340,
      "isms": 7341,
      "Ġongoing": 7342,
      "Ġaffordable": 7343,
      "Ġrespectively": 7344,
      "Ġawareness": 7345,
      "Ġbonus": 7346,
      "Ġtradition": 7347,
      "ĠNorthern": 7348,
      "Ġid": 7349,
      "Ġdepression": 7350,
      "Ġreligion": 7351,
      "ĠBible": 7352,
      "ĠDun": 7353,
      "rm": 7354,
      "Ġfairly": 7355,
      "andy": 7356,
      "Ġassessment": 7357,
      "iform": 7358,
      "Ġcable": 7359,
      "ĠSaf": 7360,
      "Ġinvent": 7361,
      "Ġincreasingly": 7362,
      "sect": 7363,
      "Ġimmediate": 7364,
      "ĠBush": 7365,
      "Ġzone": 7366,
      "Ġsearching": 7367,
      "ĠField": 7368,
      "Ġgear": 7369,
      "Ġsin": 7370,
      "Ġdamaged": 7371,
      "Ġrecognize": 7372,
      "Ġborrow": 7373,
      "ĠFOR": 7374,
      "Ġarts": 7375,
      "Ġsomewhere": 7376,
      "Ġalleged": 7377,
      "Ġphilosoph": 7378,
      "ĠOpt": 7379,
      "aints": 7380,
      "lines": 7381,
      "ĠDate": 7382,
      "Ġnest": 7383,
      "!!!": 7384,
      "Ġseed": 7385,
      "Ġcm": 7386,
      "Ġreaction": 7387,
      "Ġbelieves": 7388,
      "Ġengaged": 7389,
      "Ġfuck": 7390,
      "ĠDaily": 7391,
      "ĠQual": 7392,
      "Ġefficiency": 7393,
      "ĠRon": 7394,
      "ĠOK": 7395,
      "Ġtrained": 7396,
      "Ġsheet": 7397,
      "you": 7398,
      ".|": 7399,
      "Ġtasks": 7400,
      "Ġpartnership": 7401,
      "Ġshots": 7402,
      "atoes": 7403,
      "Ġpayments": 7404,
      "Ġkil": 7405,
      "ĠHeart": 7406,
      "ĠUnfortunately": 7407,
      "Ġexclusive": 7408,
      "away": 7409,
      "ĠHur": 7410,
      "tle": 7411,
      "cribe": 7412,
      "ĠBrazil": 7413,
      "Ġphen": 7414,
      "Ġalive": 7415,
      "Ġanticip": 7416,
      "ĠEmp": 7417,
      "ĠRights": 7418,
      "Ġcock": 7419,
      "Ġliquid": 7420,
      "swe": 7421,
      "Ġmile": 7422,
      "Ġflour": 7423,
      "Ġvit": 7424,
      "Ġinformed": 7425,
      "Ġcompr": 7426,
      "bar": 7427,
      "Ġcounsel": 7428,
      "Ġtaxes": 7429,
      "uct": 7430,
      "Ġsinger": 7431,
      "Ġrocks": 7432,
      "Ġunusual": 7433,
      "Ġtested": 7434,
      "Is": 7435,
      "ĠMeet": 7436,
      "Ġloyal": 7437,
      "Ġinfo": 7438,
      "Ġseasons": 7439,
      "Ġcritics": 7440,
      "Ġlayer": 7441,
      "Ġmillions": 7442,
      "Ġregistration": 7443,
      "Ġexpectations": 7444,
      "Ġmurder": 7445,
      "Ġfing": 7446,
      "ĠBuy": 7447,
      "Ġdiscl": 7448,
      "ĠJersey": 7449,
      "ico": 7450,
      "Ġimprovement": 7451,
      "Ġphotograp": 7452,
      "Ġgained": 7453,
      "ĠNH": 7454,
      "Ġisol": 7455,
      "lements": 7456,
      "Ġ1995": 7457,
      "rency": 7458,
      "ĠTaylor": 7459,
      "Ġamazed": 7460,
      "otal": 7461,
      "Ġexternal": 7462,
      "Ġsear": 7463,
      "Ġbone": 7464,
      "aturally": 7465,
      "Ġdiverse": 7466,
      "Ġentit": 7467,
      "Ġsomewhat": 7468,
      "ĠRos": 7469,
      "Ġconsistent": 7470,
      "ĠSummer": 7471,
      "Ġsuffering": 7472,
      "ĠBul": 7473,
      "ĠBox": 7474,
      "oval": 7475,
      "Ġsolar": 7476,
      "Ġstronger": 7477,
      "riff": 7478,
      "Ġdump": 7479,
      "Ġstir": 7480,
      "86": 7481,
      "Ġfiled": 7482,
      "arks": 7483,
      "ĠStudents": 7484,
      "Ġatmosphere": 7485,
      "ĠDog": 7486,
      "ĠBroad": 7487,
      "ĠLin": 7488,
      "endar": 7489,
      "ĠInside": 7490,
      "ĠTerm": 7491,
      "Ġtechnique": 7492,
      "Ġboun": 7493,
      "Ġfalling": 7494,
      "Ġsail": 7495,
      "inding": 7496,
      "Ġabsor": 7497,
      "Ġbell": 7498,
      "Ġanyway": 7499,
      "Ġham": 7500,
      "eries": 7501,
      "comes": 7502,
      "Ġadds": 7503,
      "Ġeveryday": 7504,
      "ĠGuide": 7505,
      "ĠFarm": 7506,
      "Ġapple": 7507,
      "Ġpoet": 7508,
      "ĠProfessor": 7509,
      "âĢĻ.": 7510,
      "Ġfirstname": 7511,
      "ĠCirc": 7512,
      "Ġintelligence": 7513,
      "Ġmand": 7514,
      "ĠViet": 7515,
      "Ġpursu": 7516,
      "Ġperformances": 7517,
      "Ġol": 7518,
      "Ġduty": 7519,
      "Ġpuzz": 7520,
      "Ġfasc": 7521,
      "Ġbeer": 7522,
      "Ġcopies": 7523,
      "aine": 7524,
      "Ġdescribe": 7525,
      "Ġfaced": 7526,
      "Ġdreams": 7527,
      "Ġintent": 7528,
      "Ġtwe": 7529,
      "Ġshift": 7530,
      "Ġbutt": 7531,
      "Ġsizes": 7532,
      "Ã¶": 7533,
      "Ġpersonally": 7534,
      "ounded": 7535,
      "Ġelimin": 7536,
      "lights": 7537,
      "bel": 7538,
      "athan": 7539,
      "ĠRout": 7540,
      "Ġnewly": 7541,
      "ĠMD": 7542,
      "Ġreputation": 7543,
      "Ġoppon": 7544,
      "ĠSky": 7545,
      "Ġcoc": 7546,
      "Ġfrustr": 7547,
      "ĠChair": 7548,
      "ĠChampionship": 7549,
      "pack": 7550,
      "person": 7551,
      "ĠExpl": 7552,
      "Ġfo": 7553,
      "ĠVill": 7554,
      "Ġvess": 7555,
      "hell": 7556,
      "ĠLine": 7557,
      "lete": 7558,
      "Ġconserv": 7559,
      "Ġharder": 7560,
      "Ġconstant": 7561,
      "Ġpremium": 7562,
      "Ġexperiment": 7563,
      "Ġvend": 7564,
      "Ġsought": 7565,
      "aze": 7566,
      "ĠSpirit": 7567,
      "Ġmoder": 7568,
      "Ġattempts": 7569,
      "Ġapproval": 7570,
      "ellect": 7571,
      "Ġappointment": 7572,
      "Ġfestival": 7573,
      "Ġagric": 7574,
      "abeth": 7575,
      "ĠBall": 7576,
      "Ġargument": 7577,
      "Ġpod": 7578,
      "Ġloans": 7579,
      "Ġdrinking": 7580,
      "AY": 7581,
      "ĠCurrent": 7582,
      "Ġextent": 7583,
      "ĠApplic": 7584,
      "Ġbrothers": 7585,
      "alty": 7586,
      "ĠColorado": 7587,
      "Ġfishing": 7588,
      "Ġbrilliant": 7589,
      "Ġpounds": 7590,
      "Ġages": 7591,
      "ĠMeanwhile": 7592,
      "Ġclassroom": 7593,
      "Ġsubmit": 7594,
      "Ġcontrolled": 7595,
      "ĠDam": 7596,
      "ĠDave": 7597,
      "lers": 7598,
      "ilty": 7599,
      "Ġencoun": 7600,
      "ĠOx": 7601,
      "ĠLy": 7602,
      "Ġtalks": 7603,
      "ĠSon": 7604,
      "Ġevol": 7605,
      "Ġrecon": 7606,
      "Ġtape": 7607,
      "Ġgranted": 7608,
      "Ġassigned": 7609,
      "Ġfox": 7610,
      "Ġreplacement": 7611,
      "ĠTry": 7612,
      "ĠExecutive": 7613,
      "achel": 7614,
      "Ġstatements": 7615,
      "Ġbags": 7616,
      "06": 7617,
      "Ġcombat": 7618,
      "Ġreporting": 7619,
      "Ġlandscape": 7620,
      "uing": 7621,
      "Ġillness": 7622,
      "Ġlinked": 7623,
      "ĠAdam": 7624,
      "Ġnetworks": 7625,
      "Ġwinds": 7626,
      "Ġexpansion": 7627,
      "Ġlicens": 7628,
      "whel": 7629,
      "hire": 7630,
      "42": 7631,
      "Ġfalls": 7632,
      "iro": 7633,
      "ĠColl": 7634,
      "ĠStat": 7635,
      "jo": 7636,
      "Ġawards": 7637,
      "ĠComple": 7638,
      "uction": 7639,
      "Ġpilot": 7640,
      "Ġformal": 7641,
      "ĠWr": 7642,
      "Ġcollaboration": 7643,
      "Ġmistake": 7644,
      "ĠSupreme": 7645,
      "osc": 7646,
      "Ġregions": 7647,
      "ĠSpace": 7648,
      "Ġsignal": 7649,
      "Ġsoup": 7650,
      "Ġtub": 7651,
      "ĠEst": 7652,
      "Ġluck": 7653,
      "08": 7654,
      "Ġsolve": 7655,
      "ologist": 7656,
      "Ġpermission": 7657,
      "ĠIrish": 7658,
      "ĠBrian": 7659,
      "Ġproposal": 7660,
      "ĠMach": 7661,
      "Ġexposure": 7662,
      "Ġdemocr": 7663,
      "ATION": 7664,
      "ruits": 7665,
      "ĠFilm": 7666,
      "Ġhopes": 7667,
      "athered": 7668,
      "case": 7669,
      "Ġcrying": 7670,
      "Ġtons": 7671,
      "uten": 7672,
      "ĠCred": 7673,
      "Ġvacc": 7674,
      "ockey": 7675,
      "long": 7676,
      "Be": 7677,
      "Ġmud": 7678,
      "ĠEU": 7679,
      "Ġneither": 7680,
      "Ġprospect": 7681,
      "ĠGreek": 7682,
      "Ġtournament": 7683,
      "ĠEliz": 7684,
      "Ġdealing": 7685,
      "Ġinterpret": 7686,
      "ĠRoom": 7687,
      "Ġamend": 7688,
      "Ġslot": 7689,
      "resents": 7690,
      "Ġdiscipl": 7691,
      "Ġcontained": 7692,
      "ava": 7693,
      "Ġtravell": 7694,
      "Ġstruck": 7695,
      "ĠTer": 7696,
      "Ġgraduate": 7697,
      "Ġepisodes": 7698,
      "Ġapartment": 7699,
      "Ġhighway": 7700,
      "Ġexplains": 7701,
      "How": 7702,
      "uster": 7703,
      "Ġpermanent": 7704,
      "Ġopposite": 7705,
      "Ġexceed": 7706,
      "Ġgrandma": 7707,
      "rated": 7708,
      "Ġcaptured": 7709,
      "76": 7710,
      "Ġspray": 7711,
      "Ġgay": 7712,
      "Ġinspiration": 7713,
      "ĠSwed": 7714,
      "ĠStone": 7715,
      "ĠDisney": 7716,
      "ĠEdward": 7717,
      "ancial": 7718,
      "Ġpowers": 7719,
      "ĠCert": 7720,
      "ĠBa": 7721,
      "ĠPak": 7722,
      "Ġexistence": 7723,
      "ĠCivil": 7724,
      "Ġyield": 7725,
      "ĠOil": 7726,
      "Ġaside": 7727,
      "ĠTech": 7728,
      "ĠAmong": 7729,
      "olec": 7730,
      "ĠConnect": 7731,
      "Ġbasketball": 7732,
      "Ġtied": 7733,
      "Ġreaching": 7734,
      "ĠSmall": 7735,
      "ERS": 7736,
      "ennis": 7737,
      "ĠNorm": 7738,
      "ione": 7739,
      "ĠRun": 7740,
      "Ġflexible": 7741,
      "Ġbaseball": 7742,
      "Ġmerch": 7743,
      "ĠKenn": 7744,
      "pson": 7745,
      "Ġproof": 7746,
      "ĠLu": 7747,
      "ĠTony": 7748,
      "Ġreturning": 7749,
      "Ġtreasure": 7750,
      "Ġmuscle": 7751,
      "Ġweekly": 7752,
      "ĠStephen": 7753,
      "Ġpersons": 7754,
      "Ġprogramme": 7755,
      "Ġtitles": 7756,
      "ĠCB": 7757,
      "Ġbreaking": 7758,
      "Ġalert": 7759,
      "Ġcharm": 7760,
      "Ġadventures": 7761,
      "ati": 7762,
      "bro": 7763,
      "uine": 7764,
      "Ġalt": 7765,
      "Ġdrawn": 7766,
      "Ġinner": 7767,
      "remony": 7768,
      "ĠLew": 7769,
      "stal": 7770,
      "grad": 7771,
      "Ġ1960": 7772,
      "Ġthorough": 7773,
      "Ġlone": 7774,
      "iversary": 7775,
      "ĠSite": 7776,
      "Ġwrites": 7777,
      "43": 7778,
      "ĠHollywood": 7779,
      "FC": 7780,
      "Ġerr": 7781,
      "ĠLisa": 7782,
      "Ġaggress": 7783,
      "Ġtip": 7784,
      "Ġ39": 7785,
      "asant": 7786,
      "Ġrepresented": 7787,
      "Ġsingles": 7788,
      "ĠCommon": 7789,
      "Ġlift": 7790,
      "ĠSS": 7791,
      "ĠPrime": 7792,
      "ĠSuch": 7793,
      "iece": 7794,
      "Ġcommonly": 7795,
      "Ġrevolution": 7796,
      "ĠEastern": 7797,
      "Ġintroduction": 7798,
      "ĠSeveral": 7799,
      "ĠLocal": 7800,
      "Ġknee": 7801,
      "Ġliterature": 7802,
      "ĠPut": 7803,
      "Ġprinciples": 7804,
      "ĠSong": 7805,
      "Ġavail": 7806,
      "Ġpurs": 7807,
      "ilst": 7808,
      "Ġrepresents": 7809,
      "OV": 7810,
      "una": 7811,
      "Ġpublication": 7812,
      "Ġ1994": 7813,
      "Ġfalse": 7814,
      "ĠTele": 7815,
      "ogy": 7816,
      "ml": 7817,
      "Ġwaters": 7818,
      "Ġnerv": 7819,
      "Ġdeclared": 7820,
      "Ġuncom": 7821,
      "Ġvacation": 7822,
      "Ġcrown": 7823,
      "Ġsuspect": 7824,
      "ĠEmma": 7825,
      "ĠKh": 7826,
      "ĠAtlantic": 7827,
      "ĠSH": 7828,
      "otton": 7829,
      "REE": 7830,
      "ĠKevin": 7831,
      "Ġresulted": 7832,
      "Ġstructures": 7833,
      "ĠShort": 7834,
      "ĠCra": 7835,
      "ĠEarly": 7836,
      "Ġactor": 7837,
      "Ġenemy": 7838,
      "rip": 7839,
      "Ġ49": 7840,
      "An": 7841,
      "ĠCR": 7842,
      "Ġclothing": 7843,
      "Ġinnovation": 7844,
      "Ġlawyer": 7845,
      "==": 7846,
      "Ġdaddy": 7847,
      "ĠRo": 7848,
      "Ġproducing": 7849,
      "Ġprivacy": 7850,
      "Ġlessons": 7851,
      "nce": 7852,
      "then": 7853,
      "aval": 7854,
      "cover": 7855,
      "Tube": 7856,
      "Ġvictims": 7857,
      "41": 7858,
      "Ġroot": 7859,
      "Ġstyles": 7860,
      "Ġpeak": 7861,
      "Ġaccessible": 7862,
      "Ġpic": 7863,
      "ls": 7864,
      "Ġvulner": 7865,
      "Ġsevent": 7866,
      "Ġengagement": 7867,
      "Ġmoon": 7868,
      "Ġshirt": 7869,
      "ĠJr": 7870,
      "Ġshock": 7871,
      "car": 7872,
      "ĠRog": 7873,
      "Ġpharm": 7874,
      "Ġencouraged": 7875,
      "ĠScotland": 7876,
      "ĠSpain": 7877,
      "Ġexception": 7878,
      "Pro": 7879,
      "ĠEnvironment": 7880,
      "Ġmini": 7881,
      "Ġwake": 7882,
      "amps": 7883,
      "Ġpercentage": 7884,
      "Ġcontinuing": 7885,
      "ĠGuard": 7886,
      "war": 7887,
      "ĠBeing": 7888,
      "ĠSav": 7889,
      "DS": 7890,
      "Ġhistoric": 7891,
      "EST": 7892,
      "active": 7893,
      "Ġcrucial": 7894,
      "Ġinvolving": 7895,
      "Ġlighting": 7896,
      "Ġfence": 7897,
      "Ġboxes": 7898,
      "Ġpleasure": 7899,
      "Ġmembership": 7900,
      "ĠPerform": 7901,
      "adelph": 7902,
      "Ġfarmer": 7903,
      "ĠMiller": 7904,
      "Ġprecise": 7905,
      "Ġlyr": 7906,
      "Ġundert": 7907,
      "Ġdesigner": 7908,
      "Ġhealthcare": 7909,
      "Ġdining": 7910,
      "Ġmemories": 7911,
      "ĠMajor": 7912,
      "Ġoffices": 7913,
      "ylvania": 7914,
      "Ġdragon": 7915,
      "Ġsmoke": 7916,
      "ifer": 7917,
      "ouch": 7918,
      "Ġevil": 7919,
      "Ġstrategic": 7920,
      "Ġpowder": 7921,
      "ĠRef": 7922,
      "à¤": 7923,
      "Ġwing": 7924,
      "ĠCorporation": 7925,
      "Ġimproving": 7926,
      "Ġadopted": 7927,
      "ĠBat": 7928,
      "Ġ42": 7929,
      "Ġenjoying": 7930,
      "Ġhorses": 7931,
      "Ġapparently": 7932,
      "Ġattractive": 7933,
      "Ġcommunications": 7934,
      "inking": 7935,
      "ĠBuilding": 7936,
      "Ġlies": 7937,
      "Ġpacked": 7938,
      "izz": 7939,
      "stery": 7940,
      "ĠRadio": 7941,
      "ureau": 7942,
      "ceived": 7943,
      "Ġvegetables": 7944,
      "Ġneighb": 7945,
      "swered": 7946,
      "Ġassault": 7947,
      "Ġconvenient": 7948,
      "Ġcreates": 7949,
      "Ġseats": 7950,
      "ðŁ": 7951,
      "ulating": 7952,
      "class": 7953,
      "Ġindex": 7954,
      "ĠWilson": 7955,
      "ĠFord": 7956,
      "Ġease": 7957,
      "ĠMountain": 7958,
      "ĠMah": 7959,
      "itty": 7960,
      "uter": 7961,
      "ghan": 7962,
      "Ġguidance": 7963,
      "Ġauthent": 7964,
      "Ġsubmitted": 7965,
      "ih": 7966,
      "Ġarrested": 7967,
      "ppers": 7968,
      "Ġlifestyle": 7969,
      "ĠEnt": 7970,
      "ĠAssist": 7971,
      "Ġfacilit": 7972,
      "Ġintegrated": 7973,
      "Ġroads": 7974,
      "ĠLatin": 7975,
      "ĠHistor": 7976,
      "ĠFinal": 7977,
      "bits": 7978,
      "Ġcontribute": 7979,
      "ĠPhys": 7980,
      "Ġpurple": 7981,
      "adelphia": 7982,
      "Ġleaf": 7983,
      "Ġrig": 7984,
      "ĠWorks": 7985,
      "Ġdestination": 7986,
      "Ġshouldn": 7987,
      "Ġoverwhel": 7988,
      "CS": 7989,
      "boy": 7990,
      "ĠAsian": 7991,
      "Ġroy": 7992,
      "Ġqualified": 7993,
      "Ġbasically": 7994,
      "Ġrecognition": 7995,
      "alo": 7996,
      "osy": 7997,
      "ĠPriv": 7998,
      "inois": 7999,
      "Ġconsists": 8000,
      "Ġ46": 8001,
      "ĠBridge": 8002,
      "ĠHou": 8003,
      "ĠPerhaps": 8004,
      "rett": 8005,
      "ĠArea": 8006,
      "Ġscar": 8007,
      "eria": 8008,
      "neys": 8009,
      "Ġhardware": 8010,
      "Ġnecessarily": 8011,
      "anned": 8012,
      "pir": 8013,
      "Ġembr": 8014,
      "ĠCreek": 8015,
      "Ġobviously": 8016,
      "Ġplatforms": 8017,
      "Ġdriven": 8018,
      "Ð¾": 8019,
      "Ġamounts": 8020,
      "Ġbid": 8021,
      "ĠLabor": 8022,
      "ĠHoly": 8023,
      "ĠShould": 8024,
      "ventional": 8025,
      "Ġweren": 8026,
      "Ġpersonnel": 8027,
      "Ġclar": 8028,
      "Ġsquad": 8029,
      "uties": 8030,
      "ĠBell": 8031,
      "Ġcasual": 8032,
      "Ġranked": 8033,
      "da": 8034,
      "Ġopposition": 8035,
      "Ġscheme": 8036,
      "profit": 8037,
      "Ġsne": 8038,
      "Ġoutstanding": 8039,
      "Ġprofessor": 8040,
      "Ġtab": 8041,
      "Ġgifts": 8042,
      "sm": 8043,
      "ĠPu": 8044,
      "Ġdoctors": 8045,
      "Ġkilling": 8046,
      "olit": 8047,
      "ĠCub": 8048,
      "Ġphr": 8049,
      "Ġfaculty": 8050,
      "Ġrice": 8051,
      "Ġproved": 8052,
      "Ġopens": 8053,
      "Ġsending": 8054,
      "ĠHom": 8055,
      "bell": 8056,
      "obby": 8057,
      "quir": 8058,
      "Ġwins": 8059,
      "Ġgrace": 8060,
      "rition": 8061,
      "ifies": 8062,
      "Ġauto": 8063,
      "ĠFle": 8064,
      "Ġstations": 8065,
      "aters": 8066,
      "Ġgender": 8067,
      "iot": 8068,
      "athy": 8069,
      "Ġwaves": 8070,
      "riers": 8071,
      "wart": 8072,
      "Ġsurprising": 8073,
      "Ġpresents": 8074,
      "Ġprinted": 8075,
      "Ġweird": 8076,
      "Ġdrum": 8077,
      "ĠDavis": 8078,
      "ĠType": 8079,
      "asts": 8080,
      "Ġbab": 8081,
      "Ġanswered": 8082,
      "ĠAriz": 8083,
      "ĠMu": 8084,
      "Ġentreprene": 8085,
      "inch": 8086,
      "Ġopposed": 8087,
      "Ġsynt": 8088,
      "Ġoffensive": 8089,
      "Ġmanaging": 8090,
      "ĠDark": 8091,
      "Ġstable": 8092,
      "ĠRemember": 8093,
      "Ġheavily": 8094,
      "Ġdomain": 8095,
      "Ġtroub": 8096,
      "iami": 8097,
      "Ex": 8098,
      "uous": 8099,
      "07": 8100,
      "For": 8101,
      "yers": 8102,
      "Ġclock": 8103,
      "ĠAdditionally": 8104,
      "Ġscientists": 8105,
      "rics": 8106,
      "ĠTreat": 8107,
      "Ġwithdraw": 8108,
      "Ġaccomplish": 8109,
      "Ġreader": 8110,
      "Ġmonitor": 8111,
      "Ar": 8112,
      "ĠFather": 8113,
      "Ġdefinition": 8114,
      "obs": 8115,
      "Ġdivided": 8116,
      "po": 8117,
      "Ġwarning": 8118,
      "Ġinjured": 8119,
      "ĠSilver": 8120,
      "ĠCab": 8121,
      "Ġsoph": 8122,
      "ĠPS": 8123,
      "Ġbull": 8124,
      "Ġequival": 8125,
      "Ġgarage": 8126,
      "burgh": 8127,
      "Ġtact": 8128,
      "Ġprincess": 8129,
      "ĠHim": 8130,
      "Ġcuts": 8131,
      "Ġguilty": 8132,
      "Ġgathered": 8133,
      "Ġhasn": 8134,
      "ĠProm": 8135,
      "antry": 8136,
      "Ġmonitoring": 8137,
      "Ġnap": 8138,
      "that": 8139,
      "oes": 8140,
      "ĠLtd": 8141,
      "ĠVery": 8142,
      "Ġfleet": 8143,
      "ĠRequ": 8144,
      "ĠWithout": 8145,
      "Ġbenefic": 8146,
      "ĠNeed": 8147,
      "Ġarrive": 8148,
      "oviet": 8149,
      "RI": 8150,
      "intend": 8151,
      "Ġconfused": 8152,
      "Ġtonight": 8153,
      "Ġeastern": 8154,
      "Ġrug": 8155,
      "Ġfairy": 8156,
      "Ġcertified": 8157,
      "Ġcomponent": 8158,
      "ĠFinancial": 8159,
      "onto": 8160,
      "ĠMama": 8161,
      "aped": 8162,
      "ĠDemocratic": 8163,
      "epend": 8164,
      "ds": 8165,
      "ĠYouTube": 8166,
      "ĠElizabeth": 8167,
      "Ġmanual": 8168,
      "Ġshoulder": 8169,
      "ĠEric": 8170,
      "Ġunw": 8171,
      "ns": 8172,
      "New": 8173,
      "Ġpip": 8174,
      "asion": 8175,
      "ĠJoin": 8176,
      "Ġmaintained": 8177,
      "Ġdefeat": 8178,
      "ĠPenns": 8179,
      "PC": 8180,
      "Ġintense": 8181,
      "ensus": 8182,
      "ilipp": 8183,
      "ĠPhiladelphia": 8184,
      "ĠPur": 8185,
      "iac": 8186,
      "reamed": 8187,
      "osm": 8188,
      "Ġmoist": 8189,
      "Â°": 8190,
      "Ġseeds": 8191,
      "Ġrapidly": 8192,
      "ishop": 8193,
      "eb": 8194,
      "Ġproven": 8195,
      "Ġreduction": 8196,
      "Ġbrowser": 8197,
      "stra": 8198,
      "Ġgenuine": 8199,
      "Ġtransportation": 8200,
      "Ġextension": 8201,
      "Ġdismiss": 8202,
      "Ġarchitecture": 8203,
      "ĠTraining": 8204,
      "ĠEss": 8205,
      "Ġ00": 8206,
      "Ġsaving": 8207,
      "Ġdrew": 8208,
      "eling": 8209,
      "Ġsections": 8210,
      "ĠSection": 8211,
      "Ġassistant": 8212,
      "Ġobserv": 8213,
      "Ġconcrete": 8214,
      "ĠBad": 8215,
      "Ġdirt": 8216,
      "ĠPakistan": 8217,
      "front": 8218,
      "idays": 8219,
      "Ġceremony": 8220,
      "ĠTogether": 8221,
      "ĠTravel": 8222,
      "Ġprosec": 8223,
      "Ġcategories": 8224,
      "Ġcontaining": 8225,
      "Ġpace": 8226,
      "ĠDaddy": 8227,
      "56": 8228,
      "Ġjewel": 8229,
      "Ġillegal": 8230,
      "Ġscoring": 8231,
      "ĠIllinois": 8232,
      "Ġash": 8233,
      "Ġvisible": 8234,
      "icide": 8235,
      "ĠSU": 8236,
      "Ġnervous": 8237,
      "haust": 8238,
      "âĢĻ,": 8239,
      "Ġpepper": 8240,
      "Ġlect": 8241,
      "ayer": 8242,
      "ĠTal": 8243,
      "ificate": 8244,
      "Ġcircle": 8245,
      "rets": 8246,
      "Ġunex": 8247,
      "ĠDub": 8248,
      "ints": 8249,
      "ĠNFL": 8250,
      "amental": 8251,
      "ĠWales": 8252,
      "Ġofficially": 8253,
      "ĠCountry": 8254,
      "Ġmph": 8255,
      "Ġtouched": 8256,
      "cons": 8257,
      "Ġriding": 8258,
      "Ġsustainable": 8259,
      "ĠGarden": 8260,
      "Ġrural": 8261,
      "Ġresidential": 8262,
      "Ġblanket": 8263,
      "Ġpubl": 8264,
      "ĠPrince": 8265,
      "ĠWould": 8266,
      "arrass": 8267,
      "ĠAnth": 8268,
      "vard": 8269,
      "09": 8270,
      "Ġentitled": 8271,
      "ulpt": 8272,
      "Ġmarks": 8273,
      "Ġelder": 8274,
      "aska": 8275,
      "Ġske": 8276,
      "ĠCrit": 8277,
      "Al": 8278,
      "Ġfranch": 8279,
      "Ġpersonality": 8280,
      "Ġstudied": 8281,
      "Ġsang": 8282,
      "folio": 8283,
      "Ġstages": 8284,
      "Ġpasses": 8285,
      "Ġrising": 8286,
      "Ġcontrols": 8287,
      "Ġgenerate": 8288,
      "Ġpotentially": 8289,
      "Ðµ": 8290,
      "Ġattempted": 8291,
      "ycl": 8292,
      "Ġjun": 8293,
      "plate": 8294,
      "Ġ1992": 8295,
      "Ġreducing": 8296,
      "Ġfault": 8297,
      "ĠSoviet": 8298,
      "ĠAge": 8299,
      "Ġcompos": 8300,
      "Ġstro": 8301,
      "Ġrecover": 8302,
      "Ġeleph": 8303,
      "ĠCond": 8304,
      "Ġbark": 8305,
      "ĠBern": 8306,
      "ĠMobile": 8307,
      "ĠFact": 8308,
      "icked": 8309,
      "Ġchoosing": 8310,
      "Ġcomparison": 8311,
      "ĠColumbia": 8312,
      "Ġdescribes": 8313,
      "ĠAccount": 8314,
      "Ġassociation": 8315,
      "Ġinvolves": 8316,
      "Ġfilter": 8317,
      "Ġeager": 8318,
      "ĠCOVID": 8319,
      "ĠGrant": 8320,
      "ĠStudies": 8321,
      "itals": 8322,
      "Ġtooth": 8323,
      "Ġlimits": 8324,
      "Ġpreferred": 8325,
      "ĠPersonal": 8326,
      "Ð°": 8327,
      "Ġfrag": 8328,
      "Ġ2022": 8329,
      "Ġprize": 8330,
      "Ġintellect": 8331,
      "Ġjoining": 8332,
      "Maybe": 8333,
      "Ġshower": 8334,
      "Ġimpressed": 8335,
      "Ġdrama": 8336,
      "Ġballoon": 8337,
      "Ġluxury": 8338,
      "Ġtone": 8339,
      "Ġguidelines": 8340,
      "Ġeligible": 8341,
      "Ġretirement": 8342,
      "ĠArm": 8343,
      "Ġsque": 8344,
      "Ġbehalf": 8345,
      "ĠTax": 8346,
      "Ġ186": 8347,
      "PM": 8348,
      "Ġpraised": 8349,
      "ĠLes": 8350,
      "Ġdevelopers": 8351,
      "Ġdefensive": 8352,
      "Ġrelative": 8353,
      "star": 8354,
      "ĠPract": 8355,
      "ĠDream": 8356,
      "annels": 8357,
      "ĠPow": 8358,
      "Ġtwins": 8359,
      "ĠGive": 8360,
      "Ġtech": 8361,
      "apping": 8362,
      "shine": 8363,
      "Ġphotography": 8364,
      "erning": 8365,
      "ĠFall": 8366,
      "iate": 8367,
      "urse": 8368,
      "ĠRail": 8369,
      "Ġwondered": 8370,
      "ĠLooking": 8371,
      "ĠConc": 8372,
      "Ġpreparation": 8373,
      "ĠOS": 8374,
      "ĠGolden": 8375,
      "Ġlean": 8376,
      "ĠArizona": 8377,
      "ĠGro": 8378,
      "ĠSquare": 8379,
      "Ġhire": 8380,
      "Ġevolution": 8381,
      "oven": 8382,
      "ambling": 8383,
      "Ġmyster": 8384,
      "Ġtransp": 8385,
      "ĠMarketing": 8386,
      "Ġfirms": 8387,
      "ashes": 8388,
      "Ġoccurs": 8389,
      "aka": 8390,
      "Ġ47": 8391,
      "earing": 8392,
      "ĠMiami": 8393,
      "ĠJord": 8394,
      "Ġspots": 8395,
      "Ġstrongly": 8396,
      "Ġfiction": 8397,
      "Ġdancing": 8398,
      "ĠOs": 8399,
      "irts": 8400,
      "ĠPennsylvania": 8401,
      "Ġtrends": 8402,
      "ĠSenior": 8403,
      "Ġrolled": 8404,
      "ĠCru": 8405,
      "02": 8406,
      "elve": 8407,
      "Ġexplan": 8408,
      "Ġfitness": 8409,
      "ĠTable": 8410,
      "ĠWelcome": 8411,
      "ja": 8412,
      "04": 8413,
      "Ġmixture": 8414,
      "Ġrum": 8415,
      "iki": 8416,
      "lee": 8417,
      "ĠSaint": 8418,
      "apore": 8419,
      "upid": 8420,
      "ĠJam": 8421,
      "Ġexposed": 8422,
      "ĠTen": 8423,
      "Ġ1993": 8424,
      "Ġconscious": 8425,
      "Ġviewers": 8426,
      "Ġmob": 8427,
      "making": 8428,
      "Ġsatisfact": 8429,
      "Con": 8430,
      "law": 8431,
      "ĠMarc": 8432,
      "Ġlists": 8433,
      "Ġdefeated": 8434,
      "Ġultimate": 8435,
      "ĠVen": 8436,
      "nda": 8437,
      "inter": 8438,
      "ĠMs": 8439,
      "Ġentering": 8440,
      "ĠDu": 8441,
      "LY": 8442,
      "ĠAdministration": 8443,
      "Ġconsideration": 8444,
      "gged": 8445,
      "xual": 8446,
      "Ġcoordin": 8447,
      "ĠSound": 8448,
      "Ġimplementation": 8449,
      "made": 8450,
      "Ġwalks": 8451,
      "Ġacquired": 8452,
      "iary": 8453,
      "Ġsubjects": 8454,
      "Ġcrash": 8455,
      "holders": 8456,
      "Ġmood": 8457,
      "ĠBlog": 8458,
      "regon": 8459,
      "olis": 8460,
      "Ġuncle": 8461,
      "Ġcovering": 8462,
      "Ġleather": 8463,
      "Ġsuperior": 8464,
      "Ġexcite": 8465,
      "Ġsubsequent": 8466,
      "Ġembarrass": 8467,
      "Ġmeets": 8468,
      "ĠUr": 8469,
      "Ġ95": 8470,
      "Ġ120": 8471,
      "Ġjar": 8472,
      "ĠGreg": 8473,
      "ĠStore": 8474,
      "Ġsupplement": 8475,
      "anchester": 8476,
      "When": 8477,
      "pton": 8478,
      "ĠCopyright": 8479,
      "ĠPolicy": 8480,
      "Ġrhy": 8481,
      "Ġexpenses": 8482,
      "Ġsteam": 8483,
      "actions": 8484,
      "Ġpainted": 8485,
      "Ġsecondary": 8486,
      "ĠMembers": 8487,
      "aron": 8488,
      "Ġdur": 8489,
      "Ġstrict": 8490,
      "Ġdowntown": 8491,
      "Ġsolo": 8492,
      "Ġunion": 8493,
      "ĠResp": 8494,
      "isp": 8495,
      "ĠSchol": 8496,
      "Ġ64": 8497,
      "ources": 8498,
      "Ġpriority": 8499,
      "aire": 8500,
      "Ġenroll": 8501,
      "Ġenthusi": 8502,
      "Ġstom": 8503,
      "Okay": 8504,
      "odge": 8505,
      "aper": 8506,
      "Ġgently": 8507,
      "Ġindicated": 8508,
      "ruption": 8509,
      "ĠHay": 8510,
      "Ġhurricane": 8511,
      "ĠRoute": 8512,
      "Ġinterface": 8513,
      "AF": 8514,
      "Ġchances": 8515,
      "wan": 8516,
      "oto": 8517,
      "ĠJay": 8518,
      "ĠStock": 8519,
      "Ġentrance": 8520,
      "Ġgenerated": 8521,
      "pool": 8522,
      "ĠDue": 8523,
      "ador": 8524,
      "Ġequipped": 8525,
      "Ġzero": 8526,
      "Ġdepends": 8527,
      "Ġdispl": 8528,
      "Americ": 8529,
      "ĠBarb": 8530,
      "Ġdisappointed": 8531,
      "atics": 8532,
      "Ġclever": 8533,
      "Ġrequested": 8534,
      "aud": 8535,
      "ĠBeaut": 8536,
      "awa": 8537,
      "03": 8538,
      "Ġaer": 8539,
      "ighth": 8540,
      "tes": 8541,
      "Ġneut": 8542,
      "born": 8543,
      "Ġmac": 8544,
      "Ġcolleagues": 8545,
      "Ġconstructed": 8546,
      "Ġexplos": 8547,
      "Ġ44": 8548,
      "Ġminister": 8549,
      "heim": 8550,
      "ilton": 8551,
      "Ġje": 8552,
      "ĠStaff": 8553,
      "Ġaccompan": 8554,
      "acher": 8555,
      "Ġsensitive": 8556,
      "Ġindicate": 8557,
      "Ġraw": 8558,
      "Ġfinance": 8559,
      "Ġmirror": 8560,
      "ĠDE": 8561,
      "erman": 8562,
      "Ġfindings": 8563,
      "ko": 8564,
      "lessly": 8565,
      "Ġcomposed": 8566,
      "Ġrecommendations": 8567,
      "ĠSystems": 8568,
      "Ġrental": 8569,
      "Ġvice": 8570,
      "Ġspokes": 8571,
      "Ġdynamic": 8572,
      "Ġprohib": 8573,
      "Ġcapabilities": 8574,
      "ĠÎ": 8575,
      "Ġori": 8576,
      "Ġuniform": 8577,
      "Ġcourts": 8578,
      "Ġdeposit": 8579,
      "ĠAL": 8580,
      "ĠPers": 8581,
      "ĠEmily": 8582,
      "rer": 8583,
      "ĠWebs": 8584,
      "Ġteddy": 8585,
      "ĠBase": 8586,
      "Ġcharacteristics": 8587,
      "issions": 8588,
      "acc": 8589,
      "ĠCase": 8590,
      "ĠHouston": 8591,
      "ĠLady": 8592,
      "89": 8593,
      "olph": 8594,
      "Ġlosses": 8595,
      "ĠLi": 8596,
      "mble": 8597,
      "ĠOcean": 8598,
      "izer": 8599,
      "Ġblind": 8600,
      "abetes": 8601,
      "rogen": 8602,
      "Ġtears": 8603,
      "theless": 8604,
      "Ġstake": 8605,
      "Ġflavor": 8606,
      "istent": 8607,
      "Ġbrush": 8608,
      "ĠArticle": 8609,
      "Ġincredibly": 8610,
      "ĠSteel": 8611,
      "Ġbacter": 8612,
      "CT": 8613,
      "Ġloose": 8614,
      "Ġbackyard": 8615,
      "ĠGi": 8616,
      "Ġbars": 8617,
      "Ġeverybody": 8618,
      "ĠDrive": 8619,
      "foot": 8620,
      "Ġcann": 8621,
      "ardens": 8622,
      "Ġconsumption": 8623,
      "ĠBand": 8624,
      "Ġracing": 8625,
      "Ġconnections": 8626,
      "Ġshops": 8627,
      "87": 8628,
      "Ġthousand": 8629,
      "ĠInstagram": 8630,
      "orous": 8631,
      "Ġsavings": 8632,
      "agan": 8633,
      "ĠCorn": 8634,
      "Ġarrival": 8635,
      "ĠClinton": 8636,
      "ĠManchester": 8637,
      "Com": 8638,
      "SE": 8639,
      "Ġmanufacturer": 8640,
      "ĠFun": 8641,
      "ĠJason": 8642,
      "ĠLar": 8643,
      "Ġdesired": 8644,
      "ĠForest": 8645,
      "ĠBBC": 8646,
      "ĠKorea": 8647,
      "Ġreception": 8648,
      "Ġyours": 8649,
      "isdom": 8650,
      "TER": 8651,
      "Ġnaturally": 8652,
      "ĠSelect": 8653,
      "Ġ~": 8654,
      "Ġavo": 8655,
      "ML": 8656,
      "Ġalarm": 8657,
      "ĠOak": 8658,
      "ĠBang": 8659,
      "Ġgaming": 8660,
      "ĠJosh": 8661,
      "Ġvirus": 8662,
      "Ġmeals": 8663,
      "Ġfactory": 8664,
      "Ġclosing": 8665,
      "Ġgreatly": 8666,
      "Ġbass": 8667,
      "Ġliterally": 8668,
      "Ġcoin": 8669,
      "ĠWant": 8670,
      "ĠMess": 8671,
      "yes": 8672,
      "Ġchildhood": 8673,
      "Ġshore": 8674,
      "oln": 8675,
      "ĠClean": 8676,
      "des": 8677,
      "Ġads": 8678,
      "Ġwore": 8679,
      "etary": 8680,
      "Ġbelt": 8681,
      "Ġdeploy": 8682,
      "ĠEverything": 8683,
      "Ġhosting": 8684,
      "Ġdolls": 8685,
      "Ġsafely": 8686,
      "Ġtissue": 8687,
      "Ġballs": 8688,
      "ĠSC": 8689,
      "Ġloving": 8690,
      "ĠAirport": 8691,
      "run": 8692,
      "inte": 8693,
      "Ġrequests": 8694,
      "Ġdefault": 8695,
      "Ġadmitted": 8696,
      "igate": 8697,
      "level": 8698,
      "Ġdiseases": 8699,
      "ĠTam": 8700,
      "usal": 8701,
      "Ġdeeper": 8702,
      "ĠVictoria": 8703,
      "Ġindustries": 8704,
      "ĠBed": 8705,
      "Ġdivor": 8706,
      "Ġheading": 8707,
      "EG": 8708,
      "Ġobst": 8709,
      "Ġexpanded": 8710,
      "Ġfingers": 8711,
      "Ġintention": 8712,
      "ĠNic": 8713,
      "Ġconcluded": 8714,
      "Ġregardless": 8715,
      "ĠLewis": 8716,
      "Ġgap": 8717,
      "aste": 8718,
      "Ġimper": 8719,
      "Ġemployed": 8720,
      "Ġaccord": 8721,
      "Ġdemands": 8722,
      "press": 8723,
      "ĠMother": 8724,
      "ĠToronto": 8725,
      "Ġuniverse": 8726,
      "anches": 8727,
      "ima": 8728,
      "Ġsamples": 8729,
      "Ġcave": 8730,
      "Ġstaying": 8731,
      "ĠRecords": 8732,
      "ieties": 8733,
      "Ġbands": 8734,
      "ials": 8735,
      "ĠStory": 8736,
      "Ġhosted": 8737,
      "Ġanxiety": 8738,
      "Ġenforcement": 8739,
      "Ġgym": 8740,
      "Ġsegment": 8741,
      "Ġequivalent": 8742,
      "Ġuncertain": 8743,
      "300": 8744,
      "Ġconsequences": 8745,
      "itis": 8746,
      "owed": 8747,
      "Ġexhaust": 8748,
      "ĠOregon": 8749,
      "Ġtut": 8750,
      "RS": 8751,
      "ĠClin": 8752,
      "Ġpizza": 8753,
      "iti": 8754,
      "iley": 8755,
      "Ġlogo": 8756,
      "Ġterrible": 8757,
      "Ġscream": 8758,
      "ĠLas": 8759,
      "59": 8760,
      "nesota": 8761,
      "ĠFig": 8762,
      "Ġconclusion": 8763,
      "Ġtraveling": 8764,
      "Ġpiano": 8765,
      "Ġjur": 8766,
      "rieved": 8767,
      "ĠAndy": 8768,
      "Ġoutcome": 8769,
      "Ġacceler": 8770,
      "iking": 8771,
      "Ġ250": 8772,
      "Ġlyrics": 8773,
      "Ġbunch": 8774,
      "alog": 8775,
      "Ġmerely": 8776,
      "ĠHold": 8777,
      "acking": 8778,
      "Ġactors": 8779,
      "Ġdecline": 8780,
      "Ġmyth": 8781,
      "Ġfired": 8782,
      "ĠBrook": 8783,
      "Ġportray": 8784,
      "season": 8785,
      "Ġgotten": 8786,
      "Ġcomedy": 8787,
      "Ġenorm": 8788,
      "ĠParliament": 8789,
      "Ġlanded": 8790,
      "ĠSher": 8791,
      "Ġspotted": 8792,
      "ĠPhoto": 8793,
      "Ġmortgage": 8794,
      "ĠRub": 8795,
      "Ġstops": 8796,
      "unicip": 8797,
      "Ġlets": 8798,
      "shire": 8799,
      "Ġthemes": 8800,
      "Ġlying": 8801,
      "Ġparam": 8802,
      "aza": 8803,
      "Ġlapt": 8804,
      "Ġquote": 8805,
      "dney": 8806,
      "ĠSingapore": 8807,
      "Ġpad": 8808,
      "Ġdeeply": 8809,
      "allas": 8810,
      "ĠSix": 8811,
      "quarters": 8812,
      "Ġsuffer": 8813,
      "FA": 8814,
      "Ġreserved": 8815,
      "Ġshortly": 8816,
      "Ġconcerning": 8817,
      "Ġbee": 8818,
      "Ġclouds": 8819,
      "Ġformation": 8820,
      "Ġcalendar": 8821,
      "inth": 8822,
      "Ġattach": 8823,
      "anna": 8824,
      "Ġsleeping": 8825,
      "%.": 8826,
      "ĠMcG": 8827,
      "ĠMA": 8828,
      "Ġfundamental": 8829,
      "aret": 8830,
      "ĠHighway": 8831,
      "ĠPhilipp": 8832,
      "Ġdollar": 8833,
      "Ġpeaceful": 8834,
      "Ġlonely": 8835,
      "ira": 8836,
      "Ġ1950": 8837,
      "ĠEth": 8838,
      "ĠProdu": 8839,
      "Ġlemon": 8840,
      "Ġ1991": 8841,
      "ĠBrother": 8842,
      "ĠNatural": 8843,
      "Ġnations": 8844,
      "âĢ¦.": 8845,
      "Ġinfection": 8846,
      "ĠPict": 8847,
      "missions": 8848,
      "makers": 8849,
      "Ġholes": 8850,
      "Ġphenomen": 8851,
      "ĠMarsh": 8852,
      "Ġprominent": 8853,
      "ĠFac": 8854,
      "Ġchannels": 8855,
      "Ġaccused": 8856,
      "Ġfruits": 8857,
      "mates": 8858,
      "ĠDoctor": 8859,
      "Ġplain": 8860,
      "zing": 8861,
      "Ġforum": 8862,
      "Ġhandling": 8863,
      "ĠPsych": 8864,
      "ĠCN": 8865,
      "Ġopinions": 8866,
      "ĠWas": 8867,
      "Ġax": 8868,
      "ĠGovernor": 8869,
      "Ġ41": 8870,
      "Ġtreatments": 8871,
      "Ġrepresentative": 8872,
      "Ġexcitement": 8873,
      "uma": 8874,
      "Ġlegend": 8875,
      "Ġcopyright": 8876,
      "Ġdiamond": 8877,
      "tw": 8878,
      "Ġprotest": 8879,
      "Ġfake": 8880,
      "Ġexhibition": 8881,
      "Ġ800": 8882,
      "Ġforecast": 8883,
      "thur": 8884,
      "ĠÂ°": 8885,
      "Ġtent": 8886,
      "Ġwanting": 8887,
      "ĠEmpire": 8888,
      "ĠNumber": 8889,
      "Ġterritory": 8890,
      "Ġcommunicate": 8891,
      "Ġremoval": 8892,
      "ĠCaptain": 8893,
      "ĠMatthew": 8894,
      "ĠFive": 8895,
      "Ġoblig": 8896,
      "page": 8897,
      "800": 8898,
      "Ġconsec": 8899,
      "ĠEmer": 8900,
      "Ġsettled": 8901,
      "nders": 8902,
      "Ġmild": 8903,
      "etts": 8904,
      "Ġcenters": 8905,
      "ĠStation": 8906,
      "Ġdisplayed": 8907,
      "Ġprincipal": 8908,
      "Ġsequence": 8909,
      "Ġdiscovery": 8910,
      "Ġ43": 8911,
      "etch": 8912,
      "Ġargued": 8913,
      "intage": 8914,
      "Ġinsert": 8915,
      "ĠJordan": 8916,
      "Ġpreparing": 8917,
      "Ġlaughing": 8918,
      "Ġ56": 8919,
      "ali": 8920,
      "Ġparticipation": 8921,
      "Ġsubstantial": 8922,
      "ĠProfessional": 8923,
      "Ġsemi": 8924,
      "ĠProper": 8925,
      "Ġfraud": 8926,
      "Ġreveal": 8927,
      "Ġassume": 8928,
      "Ġvocal": 8929,
      "Ġtube": 8930,
      "Ġsurve": 8931,
      "ĠWW": 8932,
      "istol": 8933,
      "Ġbreaks": 8934,
      "ĠOxford": 8935,
      "ĠName": 8936,
      "ĠMinnesota": 8937,
      "ĠFREE": 8938,
      "achus": 8939,
      "Ġcomplicated": 8940,
      "Ġstunning": 8941,
      "Ġordinary": 8942,
      "Ġobjective": 8943,
      "Ġpromotion": 8944,
      "Ġgray": 8945,
      "57": 8946,
      "ATE": 8947,
      "Ġprogramming": 8948,
      "Ġlegit": 8949,
      "ĠMedicine": 8950,
      "ĠLiving": 8951,
      "iler": 8952,
      "ĠCON": 8953,
      "Ġresponded": 8954,
      "ĠMoo": 8955,
      "Ġattacked": 8956,
      "ĠMagazine": 8957,
      "Ġshook": 8958,
      "olt": 8959,
      "ĠÂ»": 8960,
      "gor": 8961,
      "MC": 8962,
      "oa": 8963,
      "Ġdistingu": 8964,
      "ĠBaby": 8965,
      "oli": 8966,
      "engers": 8967,
      "ĠTheatre": 8968,
      "Ġ600": 8969,
      "ĠEnjoy": 8970,
      "Ġavailability": 8971,
      "Ġfought": 8972,
      "ĠFA": 8973,
      "don": 8974,
      "ela": 8975,
      "Ġclubs": 8976,
      "Ġviewed": 8977,
      "Ġweapon": 8978,
      "incoln": 8979,
      "ĠHappy": 8980,
      "iah": 8981,
      "Ġhip": 8982,
      "utter": 8983,
      "brid": 8984,
      "ĠUk": 8985,
      "ĠBry": 8986,
      "Ġdishes": 8987,
      "ifted": 8988,
      "Ġelectrical": 8989,
      "Ġpossess": 8990,
      "Ġgraphics": 8991,
      "ĠEntertain": 8992,
      "Ġstored": 8993,
      "ĠNAS": 8994,
      "Ġtelephone": 8995,
      "ĠAnderson": 8996,
      "Ġcheer": 8997,
      "Ġbaking": 8998,
      "Ġwoke": 8999,
      "Ġmaintaining": 9000,
      "Ġdrinks": 9001,
      "ulum": 9002,
      "Ġcontributed": 9003,
      "ĠIndepend": 9004,
      "coin": 9005,
      "Ġhappiness": 9006,
      "Ġproducers": 9007,
      "Ġsixth": 9008,
      "ĠPDF": 9009,
      "iral": 9010,
      "Ġstruggling": 9011,
      "Ġtemporary": 9012,
      "ĠLA": 9013,
      "Ġequally": 9014,
      "Ġdecent": 9015,
      "Ġcloth": 9016,
      "letter": 9017,
      "Le": 9018,
      "Ġchampionship": 9019,
      "Ġapproaches": 9020,
      "Ġattitude": 9021,
      "Ġsurvive": 9022,
      "ĠAlbert": 9023,
      "Ġchecked": 9024,
      "CD": 9025,
      "ĠHi": 9026,
      "Ġcaptain": 9027,
      "Ġadj": 9028,
      "Ġoperated": 9029,
      "Ġbills": 9030,
      "ĠClark": 9031,
      "ĠPalest": 9032,
      "Bl": 9033,
      "Ġhadn": 9034,
      "Ġhealing": 9035,
      "ĠVegas": 9036,
      "Ġcoup": 9037,
      "Ġimprovements": 9038,
      "angle": 9039,
      "Ġminimal": 9040,
      "roduction": 9041,
      "eras": 9042,
      "Ġscrew": 9043,
      "ĠWars": 9044,
      "ĠTenn": 9045,
      "Ġboats": 9046,
      "Ġlanguages": 9047,
      "iour": 9048,
      "ĠJake": 9049,
      "igen": 9050,
      "sts": 9051,
      "ĠSeattle": 9052,
      "Ġeleg": 9053,
      "ĠShare": 9054,
      "Ġcompare": 9055,
      "Ġsunny": 9056,
      "ĠSafety": 9057,
      "Ġlands": 9058,
      "Ġsentence": 9059,
      "Ġanniversary": 9060,
      "ĠDNA": 9061,
      "Ġinsight": 9062,
      "ĠMum": 9063,
      "Ġlip": 9064,
      "she": 9065,
      "ĠJohnny": 9066,
      "Ġcontributions": 9067,
      "Ġvolunteers": 9068,
      "ĠDead": 9069,
      "ĠThings": 9070,
      "ĠMoon": 9071,
      "ĠSE": 9072,
      "ito": 9073,
      "ĠFant": 9074,
      "Ġcher": 9075,
      "Ġadequ": 9076,
      "ĠAgency": 9077,
      "ĠSales": 9078,
      "Ġhanging": 9079,
      "Ġminim": 9080,
      "Ġenterprise": 9081,
      "imp": 9082,
      "Ġfounder": 9083,
      "ught": 9084,
      "unes": 9085,
      "Ġscan": 9086,
      "ĠMade": 9087,
      "char": 9088,
      "Ġgenerous": 9089,
      "ILL": 9090,
      "Ġretired": 9091,
      "Ġrequirement": 9092,
      "Ġportfolio": 9093,
      "Ġelectricity": 9094,
      "fish": 9095,
      "ĠAction": 9096,
      "ĠEngineering": 9097,
      "Ġnights": 9098,
      "ĠâĢĿ": 9099,
      "ĠAh": 9100,
      "Ġinitiative": 9101,
      "udd": 9102,
      "ĠMov": 9103,
      "Ġdisag": 9104,
      "ĠNob": 9105,
      "Ġlin": 9106,
      "ĠJean": 9107,
      "Ġhyper": 9108,
      "ĠCry": 9109,
      "ĠPA": 9110,
      "Ġcompete": 9111,
      "Ġgolden": 9112,
      "Pl": 9113,
      "Ġwooden": 9114,
      "ĠRecent": 9115,
      "ĠBC": 9116,
      "Ġdesignated": 9117,
      "Ġmanagers": 9118,
      "Ġchampion": 9119,
      "Ġ52": 9120,
      "ĠJess": 9121,
      "Ġraising": 9122,
      "Ġtransferred": 9123,
      "Ġsed": 9124,
      "ĠOfficer": 9125,
      "Ġfool": 9126,
      "Ġupload": 9127,
      "tra": 9128,
      "Ġstudying": 9129,
      "Hi": 9130,
      "achusetts": 9131,
      "Ġphones": 9132,
      "Ġvibr": 9133,
      "Ġrescue": 9134,
      "owa": 9135,
      "Ġ85": 9136,
      "ierce": 9137,
      "ĠAlice": 9138,
      "Ġweigh": 9139,
      "Ġpride": 9140,
      "including": 9141,
      "Ġpushing": 9142,
      "Ġmolec": 9143,
      "ĠRoss": 9144,
      "Ġconstit": 9145,
      "jection": 9146,
      "asty": 9147,
      "Ġsubsequently": 9148,
      "All": 9149,
      "ĠSydney": 9150,
      "Ġrobot": 9151,
      "Ġrely": 9152,
      "Ġspell": 9153,
      "Ġpermit": 9154,
      "Ġmanufacturers": 9155,
      "Ġfarmers": 9156,
      "Ġengines": 9157,
      "ĠStandard": 9158,
      "Ġtum": 9159,
      ")||": 9160,
      "Ġparalle": 9161,
      "ĠGil": 9162,
      "Ġpand": 9163,
      "92": 9164,
      "âĢĺ": 9165,
      "ĠPolit": 9166,
      "Ġconfront": 9167,
      "assion": 9168,
      "ĠDiego": 9169,
      "alysis": 9170,
      "Ġmeasured": 9171,
      "ĠBes": 9172,
      "ĠSmart": 9173,
      "ĠBased": 9174,
      "inating": 9175,
      "Ġhanded": 9176,
      "opher": 9177,
      "Ġlisting": 9178,
      "Ġcriteria": 9179,
      "Ġwhist": 9180,
      "ESS": 9181,
      "ĠFront": 9182,
      "ĠPrior": 9183,
      "Ġcul": 9184,
      "ĠED": 9185,
      "Ġassert": 9186,
      "ĠBit": 9187,
      "ĠRick": 9188,
      "ocation": 9189,
      "Ġacquis": 9190,
      "Ġcircuit": 9191,
      "Ġtasty": 9192,
      "roit": 9193,
      "Sure": 9194,
      "93": 9195,
      "Ġpicking": 9196,
      "Ġprayer": 9197,
      "udes": 9198,
      "ĠDemocrats": 9199,
      "Ġalter": 9200,
      "dri": 9201,
      "ĠSep": 9202,
      "Ġglow": 9203,
      "ĠCP": 9204,
      "Ġoffense": 9205,
      "Ġinstant": 9206,
      "Ġsettlement": 9207,
      "Ġvotes": 9208,
      "Ġjail": 9209,
      "Ġinstruction": 9210,
      "ults": 9211,
      "Ġpile": 9212,
      "Ġsculpt": 9213,
      "Ġphilosophy": 9214,
      "Ġroughly": 9215,
      "ji": 9216,
      "Ġkit": 9217,
      "Ġgovernor": 9218,
      "Ġcookie": 9219,
      "Ġessentially": 9220,
      "Ġgrounds": 9221,
      "Ġfewer": 9222,
      "Ġusage": 9223,
      "rific": 9224,
      "ĠBooks": 9225,
      "ĠLincoln": 9226,
      "nie": 9227,
      "ĠBeat": 9228,
      "ĠPrinc": 9229,
      "days": 9230,
      "Ġframework": 9231,
      "spe": 9232,
      "emed": 9233,
      "Ġfunctional": 9234,
      "ĠDutch": 9235,
      "ĠKir": 9236,
      "ĠDO": 9237,
      "Ġelections": 9238,
      "94": 9239,
      "ĠEntertainment": 9240,
      "Ġrefe": 9241,
      "rat": 9242,
      "Ġcabin": 9243,
      "ĠBalt": 9244,
      "ĠVice": 9245,
      "Ġbucket": 9246,
      "ĠKansas": 9247,
      "ĠMemorial": 9248,
      "wall": 9249,
      "ĠKong": 9250,
      "Un": 9251,
      "ĠFootball": 9252,
      "'.": 9253,
      "Ġvoters": 9254,
      "ĠCapital": 9255,
      "stract": 9256,
      "Ġjudgment": 9257,
      "section": 9258,
      "Ġbattles": 9259,
      "].": 9260,
      "ĠJenn": 9261,
      "ĠMassachusetts": 9262,
      "Ġrarely": 9263,
      "ibl": 9264,
      "Ġcups": 9265,
      "Ġcompliance": 9266,
      "ĠPatrick": 9267,
      "ĠHawai": 9268,
      "clusive": 9269,
      "Ã¤": 9270,
      "ĠShop": 9271,
      "Ġdiversity": 9272,
      "Ġtitled": 9273,
      "mers": 9274,
      "Ġperiods": 9275,
      "ĠSnow": 9276,
      "ĠAfghan": 9277,
      "ĠGrandma": 9278,
      "ĠKelly": 9279,
      "mann": 9280,
      "ĠSem": 9281,
      "ĠEver": 9282,
      "----": 9283,
[...]
